{
  "version": "1.0",
  "truncation": null,
  "padding": null,
  "added_tokens": [
    {
      "id": 0,
      "content": "<|endoftext|>",
      "single_word": false,
      "lstrip": false,
      "rstrip": false,
      "normalized": false,
      "special": true
    }
  ],
  "normalizer": null,
  "pre_tokenizer": {
    "type": "ByteLevel",
    "add_prefix_space": false,
    "trim_offsets": true,
    "use_regex": true
  },
  "post_processor": null,
  "decoder": {
    "type": "ByteLevel",
    "add_prefix_space": true,
    "trim_offsets": true,
    "use_regex": true
  },
  "model": {
    "type": "BPE",
    "dropout": null,
    "unk_token": null,
    "continuing_subword_prefix": null,
    "end_of_word_suffix": null,
    "fuse_unk": false,
    "byte_fallback": false,
    "ignore_merges": false,
    "vocab": {
      "<|endoftext|>": 0,
      "!": 1,
      "\"": 2,
      "#": 3,
      "$": 4,
      "%": 5,
      "&": 6,
      "'": 7,
      "(": 8,
      ")": 9,
      "*": 10,
      "+": 11,
      ",": 12,
      "-": 13,
      ".": 14,
      "/": 15,
      "0": 16,
      "1": 17,
      "2": 18,
      "3": 19,
      "4": 20,
      "5": 21,
      "6": 22,
      "7": 23,
      "8": 24,
      "9": 25,
      ":": 26,
      ";": 27,
      "<": 28,
      "=": 29,
      ">": 30,
      "?": 31,
      "@": 32,
      "A": 33,
      "B": 34,
      "C": 35,
      "D": 36,
      "E": 37,
      "F": 38,
      "G": 39,
      "H": 40,
      "I": 41,
      "J": 42,
      "K": 43,
      "L": 44,
      "M": 45,
      "N": 46,
      "O": 47,
      "P": 48,
      "Q": 49,
      "R": 50,
      "S": 51,
      "T": 52,
      "U": 53,
      "V": 54,
      "W": 55,
      "X": 56,
      "Y": 57,
      "Z": 58,
      "[": 59,
      "\\": 60,
      "]": 61,
      "^": 62,
      "_": 63,
      "`": 64,
      "a": 65,
      "b": 66,
      "c": 67,
      "d": 68,
      "e": 69,
      "f": 70,
      "g": 71,
      "h": 72,
      "i": 73,
      "j": 74,
      "k": 75,
      "l": 76,
      "m": 77,
      "n": 78,
      "o": 79,
      "p": 80,
      "q": 81,
      "r": 82,
      "s": 83,
      "t": 84,
      "u": 85,
      "v": 86,
      "w": 87,
      "x": 88,
      "y": 89,
      "z": 90,
      "{": 91,
      "|": 92,
      "}": 93,
      "~": 94,
      "¡": 95,
      "¢": 96,
      "£": 97,
      "¤": 98,
      "¥": 99,
      "¦": 100,
      "§": 101,
      "¨": 102,
      "©": 103,
      "ª": 104,
      "«": 105,
      "¬": 106,
      "®": 107,
      "¯": 108,
      "°": 109,
      "±": 110,
      "²": 111,
      "³": 112,
      "´": 113,
      "µ": 114,
      "¶": 115,
      "·": 116,
      "¸": 117,
      "¹": 118,
      "º": 119,
      "»": 120,
      "¼": 121,
      "½": 122,
      "¾": 123,
      "¿": 124,
      "À": 125,
      "Á": 126,
      "Â": 127,
      "Ã": 128,
      "Ä": 129,
      "Å": 130,
      "Æ": 131,
      "Ç": 132,
      "È": 133,
      "É": 134,
      "Ê": 135,
      "Ë": 136,
      "Ì": 137,
      "Í": 138,
      "Î": 139,
      "Ï": 140,
      "Ð": 141,
      "Ñ": 142,
      "Ò": 143,
      "Ó": 144,
      "Ô": 145,
      "Õ": 146,
      "Ö": 147,
      "×": 148,
      "Ø": 149,
      "Ù": 150,
      "Ú": 151,
      "Û": 152,
      "Ü": 153,
      "Ý": 154,
      "Þ": 155,
      "ß": 156,
      "à": 157,
      "á": 158,
      "â": 159,
      "ã": 160,
      "ä": 161,
      "å": 162,
      "æ": 163,
      "ç": 164,
      "è": 165,
      "é": 166,
      "ê": 167,
      "ë": 168,
      "ì": 169,
      "í": 170,
      "î": 171,
      "ï": 172,
      "ð": 173,
      "ñ": 174,
      "ò": 175,
      "ó": 176,
      "ô": 177,
      "õ": 178,
      "ö": 179,
      "÷": 180,
      "ø": 181,
      "ù": 182,
      "ú": 183,
      "û": 184,
      "ü": 185,
      "ý": 186,
      "þ": 187,
      "ÿ": 188,
      "Ā": 189,
      "ā": 190,
      "Ă": 191,
      "ă": 192,
      "Ą": 193,
      "ą": 194,
      "Ć": 195,
      "ć": 196,
      "Ĉ": 197,
      "ĉ": 198,
      "Ċ": 199,
      "ċ": 200,
      "Č": 201,
      "č": 202,
      "Ď": 203,
      "ď": 204,
      "Đ": 205,
      "đ": 206,
      "Ē": 207,
      "ē": 208,
      "Ĕ": 209,
      "ĕ": 210,
      "Ė": 211,
      "ė": 212,
      "Ę": 213,
      "ę": 214,
      "Ě": 215,
      "ě": 216,
      "Ĝ": 217,
      "ĝ": 218,
      "Ğ": 219,
      "ğ": 220,
      "Ġ": 221,
      "ġ": 222,
      "Ģ": 223,
      "ģ": 224,
      "Ĥ": 225,
      "ĥ": 226,
      "Ħ": 227,
      "ħ": 228,
      "Ĩ": 229,
      "ĩ": 230,
      "Ī": 231,
      "ī": 232,
      "Ĭ": 233,
      "ĭ": 234,
      "Į": 235,
      "į": 236,
      "İ": 237,
      "ı": 238,
      "Ĳ": 239,
      "ĳ": 240,
      "Ĵ": 241,
      "ĵ": 242,
      "Ķ": 243,
      "ķ": 244,
      "ĸ": 245,
      "Ĺ": 246,
      "ĺ": 247,
      "Ļ": 248,
      "ļ": 249,
      "Ľ": 250,
      "ľ": 251,
      "Ŀ": 252,
      "ŀ": 253,
      "Ł": 254,
      "ł": 255,
      "Ń": 256,
      "Ġt": 257,
      "he": 258,
      "Ġa": 259,
      "in": 260,
      "er": 261,
      "on": 262,
      "Ġthe": 263,
      "re": 264,
      "an": 265,
      "or": 266,
      "ed": 267,
      "at": 268,
      "en": 269,
      "Ġs": 270,
      "Ġo": 271,
      "Ġw": 272,
      "is": 273,
      "ar": 274,
      "al": 275,
      "it": 276,
      "nd": 277,
      "es": 278,
      "Ġof": 279,
      "Ġc": 280,
      "Ġf": 281,
      "Ġin": 282,
      "Ġb": 283,
      "as": 284,
      "Ġand": 285,
      "ing": 286,
      "Ġp": 287,
      "ic": 288,
      "ro": 289,
      "ion": 290,
      "Ġto": 291,
      "le": 292,
      "ĠS": 293,
      "Ġd": 294,
      "Ġm": 295,
      "ou": 296,
      "ĠC": 297,
      "ĠA": 298,
      "Ġh": 299,
      "il": 300,
      "Ġ1": 301,
      "ent": 302,
      "ĠT": 303,
      "st": 304,
      "ĠM": 305,
      "am": 306,
      "el": 307,
      "Ġre": 308,
      "om": 309,
      "ol": 310,
      "ct": 311,
      "Ġ(": 312,
      "ĠB": 313,
      "ad": 314,
      "Ġl": 315,
      "Ġ2": 316,
      "Ġwas": 317,
      "ĠP": 318,
      "ur": 319,
      "ch": 320,
      "et": 321,
      "Ġn": 322,
      "ĠH": 323,
      "Ġth": 324,
      "iv": 325,
      "ig": 326,
      "ation": 327,
      "ĠI": 328,
      "id": 329,
      "Ġe": 330,
      "Ġon": 331,
      "Ġfor": 332,
      "ir": 333,
      "ce": 334,
      "im": 335,
      "ot": 336,
      "ly": 337,
      "us": 338,
      "ĠR": 339,
      "ĠD": 340,
      "ut": 341,
      "ers": 342,
      "Ġg": 343,
      "Ġas": 344,
      "ra": 345,
      "ĠL": 346,
      "Ġ19": 347,
      "ow": 348,
      "ĠF": 349,
      "ay": 350,
      "ith": 351,
      "Ġ20": 352,
      "ter": 353,
      "em": 354,
      "ĠG": 355,
      "Ġis": 356,
      "un": 357,
      "ĠThe": 358,
      "Ġbe": 359,
      "Ġst": 360,
      "her": 361,
      "ĠN": 362,
      "ĠW": 363,
      "Ġwith": 364,
      "ist": 365,
      "ĠJ": 366,
      "âĢ": 367,
      "and": 368,
      "ul": 369,
      "th": 370,
      "Ġby": 371,
      "ĠE": 372,
      "os": 373,
      "'s": 374,
      "ver": 375,
      "Ġal": 376,
      "Ġat": 377,
      "um": 378,
      "ag": 379,
      "ac": 380,
      "rom": 381,
      "Ġwh": 382,
      "Ġan": 383,
      "Ġhe": 384,
      "ri": 385,
      "Ġcon": 386,
      "est": 387,
      "âĢĵ": 388,
      "Ġthat": 389,
      "ĠO": 390,
      "Ġde": 391,
      "oc": 392,
      "ber": 393,
      "ain": 394,
      "Ġ\"": 395,
      "ĠK": 396,
      "Ġv": 397,
      "op": 398,
      "av": 399,
      "Ġfrom": 400,
      "od": 401,
      "Ġse": 402,
      "Ġpro": 403,
      "art": 404,
      "if": 405,
      "res": 406,
      "ill": 407,
      "Ġcom": 408,
      "up": 409,
      "ity": 410,
      "ate": 411,
      "ard": 412,
      "ud": 413,
      "ab": 414,
      "Ġhis": 415,
      "Ġit": 416,
      "ort": 417,
      "ies": 418,
      "ĠU": 419,
      "ian": 420,
      "ew": 421,
      "all": 422,
      "ia": 423,
      "ak": 424,
      "pe": 425,
      "igh": 426,
      "Ġ201": 427,
      "ub": 428,
      "ore": 429,
      "ich": 430,
      "ĠIn": 431,
      "ĠSt": 432,
      "qu": 433,
      "se": 434,
      "ld": 435,
      "ov": 436,
      "ip": 437,
      "ant": 438,
      "ess": 439,
      "ary": 440,
      "Ġor": 441,
      "ap": 442,
      "ated": 443,
      "ment": 444,
      "ive": 445,
      "ug": 446,
      "Ġr": 447,
      "Ġpl": 448,
      "end": 449,
      "ĠCh": 450,
      "Ġch": 451,
      "00": 452,
      "The": 453,
      "und": 454,
      "ong": 455,
      "our": 456,
      "ge": 457,
      "Ġex": 458,
      "ere": 459,
      "ĠV": 460,
      "oun": 461,
      "ell": 462,
      "ial": 463,
      "Ġare": 464,
      "Ġ|": 465,
      "ear": 466,
      "ast": 467,
      "ine": 468,
      "ame": 469,
      "ction": 470,
      "ust": 471,
      "og": 472,
      "ep": 473,
      "red": 474,
      "Ġwere": 475,
      "Ġle": 476,
      "ign": 477,
      "uc": 478,
      "ie": 479,
      "19": 480,
      "ight": 481,
      "ish": 482,
      "ost": 483,
      "ord": 484,
      "ĠHe": 485,
      "ran": 486,
      "ue": 487,
      "Ġwhich": 488,
      "mer": 489,
      "ork": 490,
      "Ġ200": 491,
      "ical": 492,
      "Ġsh": 493,
      "),": 494,
      "Ġy": 495,
      "so": 496,
      "cl": 497,
      "ff": 498,
      "ack": 499,
      "Ġ||": 500,
      "ther": 501,
      "irst": 502,
      "Ġcomp": 503,
      "ure": 504,
      "Ġk": 505,
      "ok": 506,
      "ry": 507,
      "Ġ18": 508,
      "ĠâĢĵ": 509,
      "ition": 510,
      "ass": 511,
      "ts": 512,
      "ous": 513,
      "Ġhad": 514,
      "Ġun": 515,
      "te": 516,
      "ire": 517,
      "man": 518,
      "Ġalso": 519,
      "erv": 520,
      "Ġar": 521,
      "ice": 522,
      "fter": 523,
      "rit": 524,
      "Ġ3": 525,
      "Ġfirst": 526,
      "Ġnot": 527,
      "iz": 528,
      "port": 529,
      "ond": 530,
      "ĠUn": 531,
      "Ġcl": 532,
      "ide": 533,
      "are": 534,
      "pl": 535,
      "per": 536,
      "ave": 537,
      "Ġwhe": 538,
      "Ġhas": 539,
      "age": 540,
      "ĠY": 541,
      "own": 542,
      "ater": 543,
      "hed": 544,
      "Ġte": 545,
      "Ġcont": 546,
      "ome": 547,
      "Ġro": 548,
      "wo": 549,
      "ne": 550,
      "Ġher": 551,
      "ric": 552,
      "In": 553,
      "ory": 554,
      "sh": 555,
      "Ġtheir": 556,
      "Ġad": 557,
      "20": 558,
      "ang": 559,
      "Ġus": 560,
      "ational": 561,
      "Ġap": 562,
      "ime": 563,
      "ach": 564,
      "ĠTh": 565,
      "to": 566,
      "ĠAl": 567,
      "ember": 568,
      "ree": 569,
      "ib": 570,
      "Ġwho": 571,
      "Ġpart": 572,
      "Ġres": 573,
      "cc": 574,
      "Ġj": 575,
      "ence": 576,
      "Ġits": 577,
      "amp": 578,
      "ru": 579,
      "ations": 580,
      "ound": 581,
      "ĠMar": 582,
      "ount": 583,
      "land": 584,
      "ult": 585,
      "Ġplay": 586,
      "Ġbut": 587,
      "ĠIt": 588,
      "ec": 589,
      "ĠAr": 590,
      "ect": 591,
      "low": 592,
      "ens": 593,
      "ren": 594,
      "ik": 595,
      "orn": 596,
      "ould": 597,
      "ugh": 598,
      "pt": 599,
      "Ġag": 600,
      "out": 601,
      "aw": 602,
      "clud": 603,
      "Ġyear": 604,
      "Ġab": 605,
      "Ġone": 606,
      "ubl": 607,
      "ĠĊ": 608,
      "inal": 609,
      "Ġ199": 610,
      "ph": 611,
      "ade": 612,
      "over": 613,
      "oin": 614,
      "ild": 615,
      "ace": 616,
      "Ġper": 617,
      ").": 618,
      "tern": 619,
      "Ġrec": 620,
      "Ġ4": 621,
      "for": 622,
      "Ġtwo": 623,
      "uring": 624,
      "Ġbec": 625,
      "iss": 626,
      "ile": 627,
      "Ġhave": 628,
      "ward": 629,
      "Ġwork": 630,
      "Ġsc": 631,
      "ual": 632,
      "any": 633,
      "ool": 634,
      "oy": 635,
      "ates": 636,
      "fer": 637,
      "Ġinclud": 638,
      "ark": 639,
      "Ġthis": 640,
      "old": 641,
      "ied": 642,
      "Ġen": 643,
      "vel": 644,
      "ased": 645,
      "Ġafter": 646,
      "Ġbeen": 647,
      "ĠLe": 648,
      "act": 649,
      "ited": 650,
      "ress": 651,
      "ĠAn": 652,
      "Ġ-": 653,
      "ican": 654,
      "one": 655,
      "ason": 656,
      "ĠDe": 657,
      "wn": 658,
      "ents": 659,
      "Ġother": 660,
      "we": 661,
      "urn": 662,
      "Ġshe": 663,
      "ob": 664,
      "ind": 665,
      "ivers": 666,
      "ite": 667,
      "ath": 668,
      "io": 669,
      "ces": 670,
      "ors": 671,
      "ted": 672,
      "Ġcomm": 673,
      "Ġim": 674,
      "uch": 675,
      "ase": 676,
      "cted": 677,
      "gh": 678,
      "Ġout": 679,
      "les": 680,
      "ely": 681,
      "ĠCom": 682,
      "ĠNew": 683,
      "ton": 684,
      "Ġdis": 685,
      "ail": 686,
      "able": 687,
      "ilm": 688,
      "Ġdes": 689,
      "Ġ5": 690,
      "Ġup": 691,
      "Ġover": 692,
      "gan": 693,
      "Ġoff": 694,
      "ft": 695,
      "ss": 696,
      "ions": 697,
      "Ġsp": 698,
      "ings": 699,
      "chool": 700,
      "ance": 701,
      "Ġserv": 702,
      "Ġ198": 703,
      "Ġthey": 704,
      "ĠRe": 705,
      "ood": 706,
      "Ġnew": 707,
      "oh": 708,
      "Ġtra": 709,
      "Ġatt": 710,
      "ick": 711,
      "Ġinto": 712,
      "ons": 713,
      "Ġpre": 714,
      "ah": 715,
      "Ġcol": 716,
      "ĠAmer": 717,
      "Ġund": 718,
      "Ġra": 719,
      "outh": 720,
      "Ġev": 721,
      "ĠSh": 722,
      "Ġall": 723,
      "Ġsec": 724,
      "Ġtime": 725,
      "Ġne": 726,
      "du": 727,
      "ough": 728,
      "round": 729,
      "Ġele": 730,
      "ĠEn": 731,
      "orld": 732,
      "ck": 733,
      "ose": 734,
      "ĠĠ": 735,
      "rough": 736,
      "Ġcan": 737,
      "ey": 738,
      "ock": 739,
      "ook": 740,
      "ans": 741,
      "Ġhim": 742,
      "Ġ197": 743,
      "Âł": 744,
      "pec": 745,
      "ake": 746,
      "ont": 747,
      "ix": 748,
      "ious": 749,
      "ife": 750,
      "ram": 751,
      "ision": 752,
      "rib": 753,
      "Ġact": 754,
      "che": 755,
      "eral": 756,
      "ished": 757,
      "Ġwould": 758,
      "Ġunder": 759,
      "ship": 760,
      "Ġbu": 761,
      "att": 762,
      "ral": 763,
      "eb": 764,
      "Ġ6": 765,
      "Ġagain": 766,
      "Ġreg": 767,
      "way": 768,
      "oth": 769,
      "son": 770,
      "ident": 771,
      "duc": 772,
      "pr": 773,
      "rans": 774,
      "Ġfilm": 775,
      "rad": 776,
      "olog": 777,
      "ll": 778,
      "Ġbet": 779,
      "form": 780,
      "ollow": 781,
      "iversity": 782,
      "enter": 783,
      "ced": 784,
      "ics": 785,
      "Ġwhen": 786,
      "Ġseason": 787,
      "Ġpubl": 788,
      "Ġret": 789,
      "Ġpol": 790,
      "ank": 791,
      "Ġkn": 792,
      "18": 793,
      "Ġteam": 794,
      "Ġloc": 795,
      "ict": 796,
      "orth": 797,
      "aj": 798,
      "Ġ196": 799,
      "az": 800,
      "use": 801,
      "Ġpr": 802,
      "als": 803,
      "ann": 804,
      "ier": 805,
      "Ġwhere": 806,
      "Ġop": 807,
      "ober": 808,
      "iel": 809,
      "Ġass": 810,
      "ating": 811,
      "Ã©": 812,
      "arly": 813,
      "Ġmore": 814,
      "Ġqu": 815,
      "Ġduring": 816,
      "ĠCol": 817,
      "ween": 818,
      "Ġstud": 819,
      "Ġcons": 820,
      "ily": 821,
      "Ġ7": 822,
      "Ġyears": 823,
      "Ġrele": 824,
      "Ġsub": 825,
      "ĠShe": 826,
      "ĠAmerican": 827,
      "Ġsup": 828,
      "ĠZ": 829,
      "air": 830,
      "ince": 831,
      "Ġme": 832,
      "roup": 833,
      "ĠInd": 834,
      "ames": 835,
      "Ġind": 836,
      "inn": 837,
      "Ġonly": 838,
      "Ġco": 839,
      "eat": 840,
      "der": 841,
      "Ġthree": 842,
      "ve": 843,
      "ative": 844,
      "ee": 845,
      "pro": 846,
      "fore": 847,
      "Ġinter": 848,
      "|-": 849,
      "Ġacc": 850,
      "Ġ8": 851,
      "Ġform": 852,
      "Ġsy": 853,
      "Ġlater": 854,
      "Ġbetween": 855,
      "Ġ194": 856,
      "Ġfound": 857,
      "cess": 858,
      "ities": 859,
      "Ġman": 860,
      "eries": 861,
      "oci": 862,
      "200": 863,
      "ctor": 864,
      "ĠUniversity": 865,
      "overn": 866,
      "ins": 867,
      "ohn": 868,
      "oot": 869,
      "Ġmade": 870,
      "Ġmov": 871,
      "ĠCl": 872,
      "Ġrem": 873,
      "\".": 874,
      "Ġthrough": 875,
      "Ġfollow": 876,
      "Ġrel": 877,
      "ĠPro": 878,
      "Ġthem": 879,
      "Ġpres": 880,
      "Ġthen": 881,
      "ina": 882,
      "Ġsecond": 883,
      "Ġmost": 884,
      "Ġgen": 885,
      "Ġac": 886,
      "Ġart": 887,
      "ific": 888,
      "reat": 889,
      "usic": 890,
      ".\"": 891,
      "Ġpe": 892,
      "ley": 893,
      "ever": 894,
      "ĠOn": 895,
      "ĠSc": 896,
      "iam": 897,
      "Ġend": 898,
      "ball": 899,
      "ived": 900,
      "arl": 901,
      "ash": 902,
      "=\"": 903,
      "ional": 904,
      "Ġinv": 905,
      "ouse": 906,
      "ept": 907,
      "Ġ17": 908,
      "velop": 909,
      "ury": 910,
      "hen": 911,
      "Ġabout": 912,
      "ject": 913,
      "arg": 914,
      "ĠâĢ": 915,
      "ement": 916,
      "Ġdef": 917,
      "ale": 918,
      "ĠThis": 919,
      "Ġ195": 920,
      "Ġso": 921,
      "une": 922,
      "ĠUnited": 923,
      "emb": 924,
      "ĠMay": 925,
      "oss": 926,
      "enn": 927,
      "ines": 928,
      "ars": 929,
      "ĠJan": 930,
      "Ġused": 931,
      "Ġthere": 932,
      "Ġbecame": 933,
      "Ġtrans": 934,
      "Ġ9": 935,
      "Ġed": 936,
      "Ġsuch": 937,
      "ex": 938,
      "ular": 939,
      "Ġdire": 940,
      "Ġam": 941,
      "Ġnum": 942,
      "Ġspec": 943,
      "Ġfour": 944,
      "Ġrecord": 945,
      "iver": 946,
      "ten": 947,
      "Ġagainst": 948,
      "Ġ10": 949,
      "\",": 950,
      "ĠEng": 951,
      "iew": 952,
      "ĠJohn": 953,
      "Ġbeing": 954,
      "Ġlead": 955,
      "erm": 956,
      "erson": 957,
      "ĠComm": 958,
      "Ġfl": 959,
      "Ġcent": 960,
      "ople": 961,
      "Ġthan": 962,
      "201": 963,
      "ern": 964,
      "ield": 965,
      "Ġwell": 966,
      "other": 967,
      "Ġprov": 968,
      "ai": 969,
      "Ġsing": 970,
      "areer": 971,
      "til": 972,
      "Ġfam": 973,
      "bum": 974,
      "ron": 975,
      "ĠQ": 976,
      "Ġknown": 977,
      "tain": 978,
      "Ġ&": 979,
      "ower": 980,
      "ĠFran": 981,
      "pos": 982,
      "arri": 983,
      "Ġsome": 984,
      "Ġappe": 985,
      "arn": 986,
      "ise": 987,
      "uss": 988,
      "Ġdo": 989,
      "Ġinc": 990,
      "raph": 991,
      "Ġph": 992,
      "its": 993,
      "ute": 994,
      "Ġincluding": 995,
      "erman": 996,
      "ures": 997,
      "Ġcall": 998,
      "ele": 999,
      "ett": 1000,
      "Ġschool": 1001,
      "Ġsign": 1002,
      "ists": 1003,
      "ague": 1004,
      "uary": 1005,
      "ĠCon": 1006,
      "ĠSp": 1007,
      "Ġrece": 1008,
      "ather": 1009,
      "ike": 1010,
      "Ġbefore": 1011,
      "Ġ16": 1012,
      "ĠFor": 1013,
      "ĠPh": 1014,
      "ĠNov": 1015,
      "Ġadd": 1016,
      "Ġwrit": 1017,
      "ĠIs": 1018,
      "istory": 1019,
      "Ġdist": 1020,
      "Ġwhile": 1021,
      "ven": 1022,
      "Ġdec": 1023,
      "ĠJu": 1024,
      "eptember": 1025,
      "ĠBl": 1026,
      "urch": 1027,
      "ĠMarch": 1028,
      "stit": 1029,
      "aid": 1030,
      "cy": 1031,
      "ism": 1032,
      "Ġgo": 1033,
      "Ġ15": 1034,
      "Ġsur": 1035,
      "Ġcre": 1036,
      "Ġint": 1037,
      "uro": 1038,
      "ugust": 1039,
      "ĠWorld": 1040,
      "mber": 1041,
      "eth": 1042,
      "ĠAs": 1043,
      "Ġbl": 1044,
      "ctober": 1045,
      "Ġ193": 1046,
      "ired": 1047,
      "Ġshow": 1048,
      "very": 1049,
      "my": 1050,
      "ĠAt": 1051,
      "ty": 1052,
      "row": 1053,
      "xt": 1054,
      "Ġdevelop": 1055,
      "000": 1056,
      "ĠAd": 1057,
      "owever": 1058,
      "cember": 1059,
      "stem": 1060,
      "ĠSeptember": 1061,
      "Ġseries": 1062,
      "ys": 1063,
      "Ġback": 1064,
      "led": 1065,
      "ays": 1066,
      "elf": 1067,
      "Ġgroup": 1068,
      "Ġalbum": 1069,
      "Ġ202": 1070,
      "Ġbro": 1071,
      "Ġuntil": 1072,
      "pril": 1073,
      "Ġest": 1074,
      "Ġem": 1075,
      "ĠAugust": 1076,
      "Ġown": 1077,
      "ural": 1078,
      "overnment": 1079,
      "ctions": 1080,
      "Ġboth": 1081,
      "Ġmod": 1082,
      "Ġcap": 1083,
      "amed": 1084,
      "ternational": 1085,
      "ĠOctober": 1086,
      "ution": 1087,
      "ĠJanuary": 1088,
      "ĠNational": 1089,
      "ax": 1090,
      "Ġoper": 1091,
      "Ġmin": 1092,
      "ets": 1093,
      "ister": 1094,
      "ampion": 1095,
      "On": 1096,
      "Ġstart": 1097,
      "Ġmany": 1098,
      "Ġreleased": 1099,
      "ĠJune": 1100,
      "ĠAust": 1101,
      "ĠDecember": 1102,
      "Ġsong": 1103,
      "ke": 1104,
      "Ġgame": 1105,
      "Ġmon": 1106,
      "Ġno": 1107,
      "ĠBrit": 1108,
      "Ġ.": 1109,
      "Ġmain": 1110,
      "ized": 1111,
      "Ġann": 1112,
      "Ġbuild": 1113,
      "Ġmed": 1114,
      "ĠApril": 1115,
      "ris": 1116,
      "ull": 1117,
      "ĠYork": 1118,
      "Ġchar": 1119,
      "ives": 1120,
      "rand": 1121,
      "Ġcount": 1122,
      "Ġlife": 1123,
      "ĠNovember": 1124,
      "ission": 1125,
      "ract": 1126,
      "ior": 1127,
      "ĠPl": 1128,
      "ved": 1129,
      "rist": 1130,
      "ĠJuly": 1131,
      "let": 1132,
      "ird": 1133,
      "Ġ12": 1134,
      "Ġoffic": 1135,
      "Ġsever": 1136,
      "Ġhigh": 1137,
      "ĠCan": 1138,
      "ĠWar": 1139,
      "wards": 1140,
      "rid": 1141,
      "Ġpeople": 1142,
      "ĠStates": 1143,
      "uth": 1144,
      "ata": 1145,
      "Ġdesign": 1146,
      "eng": 1147,
      "Ġrun": 1148,
      "els": 1149,
      "ross": 1150,
      "Ġgu": 1151,
      "fess": 1152,
      "ple": 1153,
      "ared": 1154,
      "ery": 1155,
      "omen": 1156,
      "Ġorig": 1157,
      "ograph": 1158,
      "ped": 1159,
      "Ġrep": 1160,
      "ues": 1161,
      "ĠGerman": 1162,
      "yle": 1163,
      "ĠSchool": 1164,
      "ĠSouth": 1165,
      "Ġnumber": 1166,
      "Ġdif": 1167,
      "itt": 1168,
      "Ġplayed": 1169,
      "Ġwill": 1170,
      "Ġmat": 1171,
      "Ġpop": 1172,
      "Ġfeat": 1173,
      "Ġreturn": 1174,
      "ajor": 1175,
      "Ġcareer": 1176,
      "the": 1177,
      "ĠOr": 1178,
      "Ġ11": 1179,
      "gram": 1180,
      "vent": 1181,
      "ebru": 1182,
      "ebruary": 1183,
      "Ġwon": 1184,
      "arm": 1185,
      "eg": 1186,
      "Ġmusic": 1187,
      "by": 1188,
      "ital": 1189,
      "ful": 1190,
      "Ġopen": 1191,
      "ks": 1192,
      "ĠPr": 1193,
      "Ġname": 1194,
      "Ġob": 1195,
      "ause": 1196,
      "ret": 1197,
      "ĠMan": 1198,
      "Ġext": 1199,
      "ĠWh": 1200,
      "Ġpublic": 1201,
      "Ġsame": 1202,
      "imes": 1203,
      "ually": 1204,
      "cept": 1205,
      "ium": 1206,
      "aking": 1207,
      "ient": 1208,
      "Ġcolle": 1209,
      "col": 1210,
      "ured": 1211,
      "Ġsm": 1212,
      "Ġfin": 1213,
      "Ġorgan": 1214,
      "ology": 1215,
      "Ġlong": 1216,
      "ox": 1217,
      "ĠAll": 1218,
      "ĠGe": 1219,
      "Ġsystem": 1220,
      "Ġvar": 1221,
      "Ġformer": 1222,
      "ety": 1223,
      "ica": 1224,
      "rat": 1225,
      "ĠFebruary": 1226,
      "Ġfinal": 1227,
      "ott": 1228,
      "ility": 1229,
      "Ġprodu": 1230,
      "199": 1231,
      "Ġfollowing": 1232,
      "Ġdr": 1233,
      "ony": 1234,
      "oint": 1235,
      "Ġseveral": 1236,
      "ments": 1237,
      "rict": 1238,
      "resent": 1239,
      "Ġcontin": 1240,
      "ially": 1241,
      "ices": 1242,
      "ered": 1243,
      "oard": 1244,
      "au": 1245,
      "Ġsupport": 1246,
      "anc": 1247,
      "Ġcalled": 1248,
      "ĠPol": 1249,
      "Ġsuc": 1250,
      "Ġfamily": 1251,
      "duced": 1252,
      "lish": 1253,
      "por": 1254,
      "ants": 1255,
      "ued": 1256,
      "ally": 1257,
      "Ġmay": 1258,
      "Ġ13": 1259,
      "ised": 1260,
      "ĠEuro": 1261,
      "Ġpolit": 1262,
      "stru": 1263,
      "ended": 1264,
      "Ġbegan": 1265,
      "Ġ14": 1266,
      "Ġdep": 1267,
      "Ġearly": 1268,
      "ĠSe": 1269,
      "ĠCity": 1270,
      "ĠCount": 1271,
      "Ġarea": 1272,
      "ove": 1273,
      "ilt": 1274,
      "ĠWill": 1275,
      "ootball": 1276,
      "Ġchild": 1277,
      "Ġnow": 1278,
      "Ġent": 1279,
      "isc": 1280,
      "ange": 1281,
      "fl": 1282,
      "ĠAss": 1283,
      "rop": 1284,
      "yn": 1285,
      "arch": 1286,
      "âĢĻ": 1287,
      "Ġ192": 1288,
      "10": 1289,
      "Ġ2014": 1290,
      "ĠGu": 1291,
      "Ġ2012": 1292,
      "ided": 1293,
      "born": 1294,
      "ible": 1295,
      "Ġprom": 1296,
      "Ġuse": 1297,
      "sp": 1298,
      "ĠEd": 1299,
      "ĠAfter": 1300,
      "Ġsince": 1301,
      "ĠMin": 1302,
      "view": 1303,
      "ampionship": 1304,
      "Ġwe": 1305,
      "17": 1306,
      "chn": 1307,
      "af": 1308,
      "ĠUS": 1309,
      "Ġ2015": 1310,
      "ĠBritish": 1311,
      "ĠCar": 1312,
      "Ġeff": 1313,
      "Ġclass": 1314,
      "Ġbook": 1315,
      "oman": 1316,
      "Ġnear": 1317,
      "ene": 1318,
      "Ġ'": 1319,
      "Ġthese": 1320,
      "Ġdisc": 1321,
      "ĠThey": 1322,
      "Ġany": 1323,
      "ained": 1324,
      "Ġgovernment": 1325,
      "yl": 1326,
      "augh": 1327,
      "ĠBe": 1328,
      "Ġhead": 1329,
      "Ġpartic": 1330,
      "ring": 1331,
      "ĠBro": 1332,
      "Ġalong": 1333,
      "ĠAm": 1334,
      "Ġapp": 1335,
      "umb": 1336,
      "Ġplace": 1337,
      "Ġtit": 1338,
      "ung": 1339,
      "Ġdesc": 1340,
      "Ġpass": 1341,
      "ĠNorth": 1342,
      "embers": 1343,
      "ĠState": 1344,
      "ĠAustral": 1345,
      "illion": 1346,
      "pect": 1347,
      "Ġmember": 1348,
      "Ġ2011": 1349,
      "ival": 1350,
      "Ġcur": 1351,
      "ĠRep": 1352,
      "Ġoriginal": 1353,
      "Ġstate": 1354,
      "reen": 1355,
      "min": 1356,
      "Ġclub": 1357,
      "ĠHis": 1358,
      "ages": 1359,
      "Ġprogram": 1360,
      "Ġdid": 1361,
      "Ġ2008": 1362,
      "iving": 1363,
      "ĠHar": 1364,
      "Ġexp": 1365,
      "Ġbel": 1366,
      "Ġeng": 1367,
      "Ġeach": 1368,
      "ilit": 1369,
      "aced": 1370,
      "oung": 1371,
      "ert": 1372,
      "Ġpos": 1373,
      "Ġcompany": 1374,
      "ĠâĢĶ": 1375,
      "ĠII": 1376,
      "ĠCo": 1377,
      "ator": 1378,
      "ster": 1379,
      "aving": 1380,
      "St": 1381,
      "erg": 1382,
      "Ġheld": 1383,
      "ane": 1384,
      "Ġair": 1385,
      "orm": 1386,
      "ored": 1387,
      "Ġland": 1388,
      "rent": 1389,
      "Ġtook": 1390,
      "Ġcommun": 1391,
      "ham": 1392,
      "Ġ2010": 1393,
      "ink": 1394,
      "..": 1395,
      "con": 1396,
      "ivision": 1397,
      "ĠEurope": 1398,
      "ience": 1399,
      "ĠMc": 1400,
      "Ġcity": 1401,
      "aster": 1402,
      "Ġstr": 1403,
      "Ġnamed": 1404,
      "Ġreport": 1405,
      "Ġtr": 1406,
      "ically": 1407,
      "ae": 1408,
      "ĠTe": 1409,
      "med": 1410,
      "ĠLeague": 1411,
      "ze": 1412,
      "eter": 1413,
      "iness": 1414,
      "hes": 1415,
      "ling": 1416,
      "Ġocc": 1417,
      "itions": 1418,
      "Ġhome": 1419,
      "Ġreceived": 1420,
      "Ġjoin": 1421,
      "Ġinst": 1422,
      "ode": 1423,
      "Ġdiffer": 1424,
      "Ch": 1425,
      "ĠEx": 1426,
      "alif": 1427,
      "Ġcomple": 1428,
      "ĠKing": 1429,
      "ĊĠ": 1430,
      "ined": 1431,
      "Ġmajor": 1432,
      "ĠAnd": 1433,
      "Ġsim": 1434,
      "Ġ2013": 1435,
      "side": 1436,
      "inc": 1437,
      "Ġcould": 1438,
      "ille": 1439,
      "Ġ2017": 1440,
      "Ġcharact": 1441,
      "Ġ2016": 1442,
      "ĠColle": 1443,
      "mp": 1444,
      "Ġsaid": 1445,
      "ney": 1446,
      "rew": 1447,
      "Ġhel": 1448,
      "ĠCanad": 1449,
      "Ġdue": 1450,
      "Ġmembers": 1451,
      "ĠEl": 1452,
      "Ġbus": 1453,
      "Ġserved": 1454,
      "ĠBar": 1455,
      "ien": 1456,
      "ounc": 1457,
      "ĠChrist": 1458,
      "Ġlist": 1459,
      "Ġcompet": 1460,
      "urg": 1461,
      "Ġsuccess": 1462,
      "Ġband": 1463,
      "ians": 1464,
      "uck": 1465,
      "apan": 1466,
      "ĠGeor": 1467,
      "12": 1468,
      "ief": 1469,
      "Ġestab": 1470,
      "Ã¡": 1471,
      "rap": 1472,
      "ĠFl": 1473,
      "Ġmet": 1474,
      "ains": 1475,
      "vers": 1476,
      "ourt": 1477,
      "Ġdown": 1478,
      "ĠReg": 1479,
      "alth": 1480,
      "ĠX": 1481,
      "Ġstation": 1482,
      "que": 1483,
      "Ġsmall": 1484,
      "me": 1485,
      "Ġlocal": 1486,
      "uk": 1487,
      "Ġworld": 1488,
      "ights": 1489,
      "aint": 1490,
      "Ġ2019": 1491,
      "Ġleft": 1492,
      "ĠAf": 1493,
      "Ġline": 1494,
      "Ġdeb": 1495,
      "He": 1496,
      "Ġappro": 1497,
      "ches": 1498,
      "Ġsix": 1499,
      "Ġaround": 1500,
      "ĠWilliam": 1501,
      "ĠWest": 1502,
      "15": 1503,
      "Ġsingle": 1504,
      "arge": 1505,
      "ĠArt": 1506,
      "Ġevent": 1507,
      "ese": 1508,
      "Ġlast": 1509,
      "ble": 1510,
      "Ġday": 1511,
      "ĠHer": 1512,
      "Ġlaw": 1513,
      "16": 1514,
      "ĠHowever": 1515,
      "aul": 1516,
      "ats": 1517,
      "Ġleg": 1518,
      "ately": 1519,
      "Ġborn": 1520,
      "Ġprofess": 1521,
      "sc": 1522,
      "rench": 1523,
      "istor": 1524,
      "Ġstyle": 1525,
      "arried": 1526,
      "Ġbased": 1527,
      "Ġvers": 1528,
      "Ġ$": 1529,
      "Ġtop": 1530,
      "Ġcamp": 1531,
      "rol": 1532,
      "ĠCounty": 1533,
      "omin": 1534,
      "reet": 1535,
      "Ġ2007": 1536,
      "sk": 1537,
      "ask": 1538,
      "Ġfive": 1539,
      "Ġcar": 1540,
      "Ġtri": 1541,
      "198": 1542,
      "Ġannoun": 1543,
      "ĠPar": 1544,
      "uthor": 1545,
      "Ġorder": 1546,
      "Ġconc": 1547,
      "ĠMed": 1548,
      "Ġdeath": 1549,
      "ĠAb": 1550,
      "Ġ190": 1551,
      "Ġgeneral": 1552,
      "Ġpublished": 1553,
      "Ġalign": 1554,
      "ner": 1555,
      "vision": 1556,
      "Ġbuilt": 1557,
      "ĠAir": 1558,
      "aus": 1559,
      "ĠĠĠĠ": 1560,
      "Ġmark": 1561,
      "ently": 1562,
      "Ġdied": 1563,
      "Ġset": 1564,
      "Ġmanag": 1565,
      "ĠJapan": 1566,
      "Ġrest": 1567,
      "aim": 1568,
      "com": 1569,
      "Ġadv": 1570,
      "Ġnational": 1571,
      "right": 1572,
      "ana": 1573,
      "Ġep": 1574,
      "uff": 1575,
      "ides": 1576,
      "ĠGen": 1577,
      "Ġdet": 1578,
      "Ġthird": 1579,
      "ording": 1580,
      "amb": 1581,
      "ĠSec": 1582,
      "Ġ25": 1583,
      "ino": 1584,
      "ization": 1585,
      "Ġ30": 1586,
      "val": 1587,
      "ography": 1588,
      "Ġ2009": 1589,
      "ĠSw": 1590,
      "attle": 1591,
      "ration": 1592,
      "Ġ189": 1593,
      "Ġterm": 1594,
      "ara": 1595,
      "Ġla": 1596,
      "iet": 1597,
      "Ġref": 1598,
      "ĠComp": 1599,
      "Ġbuilding": 1600,
      "ondon": 1601,
      "ĠRo": 1602,
      "Ġpo": 1603,
      "vious": 1604,
      "adem": 1605,
      "Th": 1606,
      "Ġshort": 1607,
      "ĠSy": 1608,
      "ps": 1609,
      "Ġincluded": 1610,
      "Ġbecause": 1611,
      "ulation": 1612,
      "ouncil": 1613,
      "Ġperson": 1614,
      "iod": 1615,
      "Ġrequ": 1616,
      "Ġcentury": 1617,
      "ison": 1618,
      "ĠCor": 1619,
      "color": 1620,
      "int": 1621,
      "ef": 1622,
      "14": 1623,
      "ĠAng": 1624,
      "Ġeduc": 1625,
      "Ġtown": 1626,
      "alk": 1627,
      "ev": 1628,
      "ĠDav": 1629,
      "ales": 1630,
      "Ġresult": 1631,
      "ĠCent": 1632,
      "day": 1633,
      "Ġ2018": 1634,
      "ĠPart": 1635,
      "ature": 1636,
      "Ġold": 1637,
      "riend": 1638,
      "ĠRuss": 1639,
      "iven": 1640,
      "ively": 1641,
      "Ġmoved": 1642,
      "though": 1643,
      "Ġallow": 1644,
      "Ġfootball": 1645,
      "ington": 1646,
      "Ġdra": 1647,
      "akes": 1648,
      "ards": 1649,
      "Ġiss": 1650,
      "Ġkill": 1651,
      "ĠLa": 1652,
      "ocial": 1653,
      "ourn": 1654,
      "ĊĊ": 1655,
      "ĠPark": 1656,
      "Ġ2020": 1657,
      "ĠSup": 1658,
      "Ġconsid": 1659,
      "work": 1660,
      "Ġ,": 1661,
      "ĠFrench": 1662,
      "Ġresp": 1663,
      "inning": 1664,
      "ĠMe": 1665,
      "ĠPhil": 1666,
      "ĠCollege": 1667,
      "Ġty": 1668,
      "Ġwithin": 1669,
      "ford": 1670,
      "Ã³": 1671,
      "Ġappear": 1672,
      "Ġperform": 1673,
      "Ġson": 1674,
      "Ġcrit": 1675,
      "ĠChampionship": 1676,
      "Ġdem": 1677,
      "ĠLondon": 1678,
      "Ġpost": 1679,
      "Ġpower": 1680,
      "ody": 1681,
      "Ġsl": 1682,
      "co": 1683,
      "Ġlarge": 1684,
      "idd": 1685,
      "Ġwin": 1686,
      "ĠPres": 1687,
      "Ġproject": 1688,
      "ler": 1689,
      "ged": 1690,
      "Ġannounced": 1691,
      "eek": 1692,
      "ones": 1693,
      "ĠTr": 1694,
      "Ġvis": 1695,
      "Ġlocated": 1696,
      "Ġaddition": 1697,
      "ĠRes": 1698,
      "ining": 1699,
      "Ġinclude": 1700,
      "ched": 1701,
      "hip": 1702,
      "Ġcor": 1703,
      "ality": 1704,
      "Ġrepl": 1705,
      "Ġlike": 1706,
      "13": 1707,
      "na": 1708,
      "ground": 1709,
      "Ġservice": 1710,
      "estern": 1711,
      "ĠBr": 1712,
      "ĠNo": 1713,
      "Ġstand": 1714,
      "Ġattack": 1715,
      "Ġjust": 1716,
      "aren": 1717,
      "Ġhistory": 1718,
      "ĠCup": 1719,
      "Ġpresent": 1720,
      "Ġdescrib": 1721,
      "Ġincre": 1722,
      "ilitary": 1723,
      "artment": 1724,
      "ĠGl": 1725,
      "urs": 1726,
      "ĠEnglish": 1727,
      "Ġwomen": 1728,
      "Ġled": 1729,
      "Ġfather": 1730,
      "Ġrepresent": 1731,
      "ander": 1732,
      "alf": 1733,
      "rest": 1734,
      "Ġchildren": 1735,
      "ether": 1736,
      "Ġplayer": 1737,
      "ĠHigh": 1738,
      "||": 1739,
      "Ġexper": 1740,
      "ald": 1741,
      "Ġ2006": 1742,
      "Ġanother": 1743,
      "ĠDep": 1744,
      "oph": 1745,
      "Ġtrad": 1746,
      "Ġwar": 1747,
      "ublic": 1748,
      "Ġnorth": 1749,
      "ument": 1750,
      "ified": 1751,
      "Ġav": 1752,
      "Ġdifferent": 1753,
      "iment": 1754,
      "Ġ24": 1755,
      "Ġtele": 1756,
      "Ġround": 1757,
      "align": 1758,
      "ĠItal": 1759,
      "ĠInternational": 1760,
      "Ġstat": 1761,
      "ÃŃ": 1762,
      "ĠAfric": 1763,
      "ĠSan": 1764,
      "Ġvill": 1765,
      "useum": 1766,
      "Ġif": 1767,
      "oyal": 1768,
      "ray": 1769,
      "lin": 1770,
      "Ġgames": 1771,
      "oon": 1772,
      "ĠPe": 1773,
      "osp": 1774,
      "Ġactiv": 1775,
      "Ġstill": 1776,
      "off": 1777,
      "Ġmonth": 1778,
      "Ġlarg": 1779,
      "Ġperiod": 1780,
      "Ã¼": 1781,
      "Ġbest": 1782,
      "197": 1783,
      "Ġpar": 1784,
      "ours": 1785,
      "Ġside": 1786,
      "Ġ188": 1787,
      "Ġsold": 1788,
      "rick": 1789,
      "Ġhouse": 1790,
      "Ġpat": 1791,
      "ĠMich": 1792,
      "ves": 1793,
      "Ġmillion": 1794,
      "uman": 1795,
      "ĠSch": 1796,
      "Ġhand": 1797,
      "hel": 1798,
      "par": 1799,
      "forman": 1800,
      "Ġprevious": 1801,
      "Ġwater": 1802,
      "ĠHouse": 1803,
      "Ġdel": 1804,
      "tal": 1805,
      "angu": 1806,
      "Ġmen": 1807,
      "ploy": 1808,
      "ribut": 1809,
      "Ġsouth": 1810,
      "Ġel": 1811,
      "Ġdata": 1812,
      "ering": 1813,
      "ases": 1814,
      "ĠAward": 1815,
      "Ġequ": 1816,
      "Ġauthor": 1817,
      "aff": 1818,
      "ense": 1819,
      "Ġvery": 1820,
      "Ġbusiness": 1821,
      "ridge": 1822,
      "gen": 1823,
      "center": 1824,
      "Ġaward": 1825,
      "ords": 1826,
      "ness": 1827,
      "ociation": 1828,
      "reg": 1829,
      "ady": 1830,
      "ĠIndian": 1831,
      "Ġstarted": 1832,
      "Ġtrack": 1833,
      "Ġport": 1834,
      "Ġsk": 1835,
      "Ġrole": 1836,
      "ote": 1837,
      "Ġcharacter": 1838,
      "conom": 1839,
      "50": 1840,
      "back": 1841,
      "Ġ22": 1842,
      "Ġbeg": 1843,
      "Ġconstru": 1844,
      "tt": 1845,
      "of": 1846,
      "ĠSm": 1847,
      "Ġcr": 1848,
      "Ġamong": 1849,
      "Ġthose": 1850,
      "avy": 1851,
      "Ġtitle": 1852,
      "ption": 1853,
      "ĠArmy": 1854,
      "ĠRiver": 1855,
      "Ġsol": 1856,
      "Ġwent": 1857,
      "app": 1858,
      "ugg": 1859,
      "cer": 1860,
      "Ġyoung": 1861,
      "ront": 1862,
      "Ġ21": 1863,
      "alt": 1864,
      "ries": 1865,
      "ĠRec": 1866,
      "ought": 1867,
      "Ġlevel": 1868,
      "Ġfac": 1869,
      "Ġcountry": 1870,
      "ize": 1871,
      "Ġlate": 1872,
      "abor": 1873,
      "Ġcurrent": 1874,
      "Ġmake": 1875,
      "gcolor": 1876,
      "ruct": 1877,
      "hib": 1878,
      "lished": 1879,
      "hem": 1880,
      "Ġrese": 1881,
      "ament": 1882,
      "Ġaff": 1883,
      "lex": 1884,
      "ideo": 1885,
      "Ġarch": 1886,
      "ico": 1887,
      "Ġinvol": 1888,
      ".,": 1889,
      "Ġ23": 1890,
      "Ġnext": 1891,
      "ociety": 1892,
      "esc": 1893,
      "ops": 1894,
      "11": 1895,
      "Ġ186": 1896,
      "rote": 1897,
      "ius": 1898,
      "Ġimport": 1899,
      "Ġenter": 1900,
      "Ġ2005": 1901,
      "Ġship": 1902,
      "ĠThere": 1903,
      "Ġinit": 1904,
      "Ġexpl": 1905,
      "Ġage": 1906,
      "Ġeven": 1907,
      "ĠDem": 1908,
      "ĠHol": 1909,
      "Ġfe": 1910,
      "ference": 1911,
      "Ġbgcolor": 1912,
      "Ġcame": 1913,
      "iter": 1914,
      "oints": 1915,
      "atch": 1916,
      "Ġspe": 1917,
      "ĠMon": 1918,
      "ĠPer": 1919,
      "Ġposs": 1920,
      "ush": 1921,
      "cast": 1922,
      "Ġturn": 1923,
      "Ġdebut": 1924,
      "omb": 1925,
      "Ġjoined": 1926,
      "Ġgrad": 1927,
      "epend": 1928,
      "Ġfield": 1929,
      "ocrat": 1930,
      "raft": 1931,
      "urther": 1932,
      "Ġworked": 1933,
      "ms": 1934,
      "ĠAc": 1935,
      "Ġoften": 1936,
      "itor": 1937,
      "An": 1938,
      "Ġepis": 1939,
      "ĠJames": 1940,
      "Ġnon": 1941,
      "Ġwhat": 1942,
      "bert": 1943,
      "self": 1944,
      "Ġtechn": 1945,
      "ĠÃ": 1946,
      "ĠEngland": 1947,
      "Ġeffect": 1948,
      "ĠPort": 1949,
      "ĠEm": 1950,
      "Ġcult": 1951,
      "adio": 1952,
      "ama": 1953,
      "30": 1954,
      "Ġbre": 1955,
      "ointed": 1956,
      "Ġconf": 1957,
      "stitute": 1958,
      "ĠEast": 1959,
      "Ġengine": 1960,
      "Ġprocess": 1961,
      "Ġreturned": 1962,
      "ĠStreet": 1963,
      "ĠDist": 1964,
      "era": 1965,
      "Ġ187": 1966,
      "rack": 1967,
      "osed": 1968,
      "Ġworks": 1969,
      "uel": 1970,
      "ached": 1971,
      "Ġdevelopment": 1972,
      "Ġbecome": 1973,
      "Ġprote": 1974,
      "Ġval": 1975,
      "ĠThom": 1976,
      "bor": 1977,
      "Ġ2004": 1978,
      "irl": 1979,
      "ape": 1980,
      "History": 1981,
      "Ġestablished": 1982,
      "irc": 1983,
      "Ġhaving": 1984,
      "Ġ26": 1985,
      "Ġ28": 1986,
      "ĠBy": 1987,
      "Ġ27": 1988,
      "Ġmuch": 1989,
      "Ġchang": 1990,
      "Ġsent": 1991,
      "Ġinvest": 1992,
      "Ġmarried": 1993,
      "Ġsett": 1994,
      "Ġcover": 1995,
      "ma": 1996,
      "lo": 1997,
      "Ġperforman": 1998,
      "ivil": 1999,
      "line": 2000,
      "ĠRober": 2001,
      "Ġspecial": 2002,
      "Ġvarious": 2003,
      "iol": 2004,
      "Ġren": 2005,
      "itar": 2006,
      "Ġmag": 2007,
      "ĠDivision": 2008,
      "ĠCouncil": 2009,
      "Ġtake": 2010,
      "196": 2011,
      "ĠOne": 2012,
      "Al": 2013,
      "After": 2014,
      "ĠChar": 2015,
      "ĠGeneral": 2016,
      "itte": 2017,
      "ĠQu": 2018,
      "ĠGeorge": 2019,
      "ĠPresident": 2020,
      "Ġclaim": 2021,
      "Ġdirector": 2022,
      "Ġfore": 2023,
      "Ġtw": 2024,
      "Ġbeh": 2025,
      "Ġ0": 2026,
      "Ġfact": 2027,
      "ari": 2028,
      "'t": 2029,
      "ĠChurch": 2030,
      "Ġ2021": 2031,
      "ael": 2032,
      "urb": 2033,
      "Ġusing": 2034,
      "lands": 2035,
      "ĠRoyal": 2036,
      "âĢĶ": 2037,
      "Ġfew": 2038,
      "posed": 2039,
      "Ġlost": 2040,
      "ories": 2041,
      "ances": 2042,
      "Ġwrote": 2043,
      "ĠAp": 2044,
      "Ġhistor": 2045,
      "rem": 2046,
      "aken": 2047,
      "Ġsigned": 2048,
      "iron": 2049,
      "Ġmatch": 2050,
      "Ġproduction": 2051,
      "ole": 2052,
      "ĠAg": 2053,
      "Ġpoints": 2054,
      "Ġspecies": 2055,
      "ĠVal": 2056,
      "hern": 2057,
      "Ġgiven": 2058,
      "Ġinternational": 2059,
      "Ġelection": 2060,
      "ummer": 2061,
      "year": 2062,
      "ead": 2063,
      "ĠBra": 2064,
      "Ġfre": 2065,
      "ĠEuropean": 2066,
      "Ġway": 2067,
      "sequ": 2068,
      "Ġposition": 2069,
      "Ġevery": 2070,
      "Ġhost": 2071,
      "Ġpolitical": 2072,
      "ogn": 2073,
      "ĠMor": 2074,
      "ĠOff": 2075,
      "Ġproduced": 2076,
      "eration": 2077,
      "Ġversion": 2078,
      "flu": 2079,
      "ream": 2080,
      "Ġimp": 2081,
      "ivid": 2082,
      "ĠSen": 2083,
      "aliforn": 2084,
      "aign": 2085,
      "âĢĿ": 2086,
      "ests": 2087,
      "field": 2088,
      "Ġstory": 2089,
      "ĠAustralia": 2090,
      "Ġcommunity": 2091,
      "ots": 2092,
      "ya": 2093,
      "ellow": 2094,
      "lect": 2095,
      "formation": 2096,
      "ournal": 2097,
      "ĠDuring": 2098,
      "van": 2099,
      "Ġelect": 2100,
      "ĠPaul": 2101,
      "Ġpri": 2102,
      "Ġattem": 2103,
      "Ġwithout": 2104,
      "Ġcreated": 2105,
      "Ġservices": 2106,
      "rant": 2107,
      "BC": 2108,
      "ention": 2109,
      "ĠInc": 2110,
      "ination": 2111,
      "Ġfun": 2112,
      "alifornia": 2113,
      "mon": 2114,
      "ĠRich": 2115,
      "ipp": 2116,
      "ilar": 2117,
      "Ġneed": 2118,
      "Ġproduc": 2119,
      "Ġcontinued": 2120,
      "oll": 2121,
      "Ġtotal": 2122,
      "Ġpresident": 2123,
      "Ġpract": 2124,
      "ĠQue": 2125,
      "Ġfriend": 2126,
      "Ġtelevision": 2127,
      "ĠIndia": 2128,
      "atter": 2129,
      "omet": 2130,
      "ĠNor": 2131,
      "ĠAct": 2132,
      "iber": 2133,
      "ville": 2134,
      "Ġ2000": 2135,
      "minist": 2136,
      "ĠMount": 2137,
      "ij": 2138,
      "Ġdays": 2139,
      "Ġparticip": 2140,
      "Ġtimes": 2141,
      "Ġcommon": 2142,
      "ope": 2143,
      "ago": 2144,
      "Ġdirect": 2145,
      "ĠParty": 2146,
      "Ġwritten": 2147,
      "Ġgl": 2148,
      "ĠDr": 2149,
      "aughter": 2150,
      "Ġprim": 2151,
      "ning": 2152,
      "orthern": 2153,
      "oor": 2154,
      "Ġpromot": 2155,
      "21": 2156,
      "Ġbrother": 2157,
      "Ġsw": 2158,
      "ean": 2159,
      "ĠPal": 2160,
      "ĠCalifornia": 2161,
      "ti": 2162,
      "Ġofficial": 2163,
      "eh": 2164,
      "astern": 2165,
      "ĠDavid": 2166,
      "olution": 2167,
      "ĠFrance": 2168,
      "Ġmilitary": 2169,
      "Ġ29": 2170,
      "Ġ2003": 2171,
      "Ġnov": 2172,
      "Ġgreat": 2173,
      "ĠDes": 2174,
      "Ġchurch": 2175,
      "ending": 2176,
      "Ġintro": 2177,
      "ician": 2178,
      "Ġhowever": 2179,
      "Ã¶": 2180,
      "Ġdescribed": 2181,
      "Ġhig": 2182,
      "ĠHall": 2183,
      "Ġright": 2184,
      "Ġfull": 2185,
      "Ġresearch": 2186,
      "ership": 2187,
      "ĠBel": 2188,
      "22": 2189,
      "Ġtem": 2190,
      "mit": 2191,
      "ĠAssociation": 2192,
      "ports": 2193,
      "ittle": 2194,
      "used": 2195,
      "Ġvoc": 2196,
      "unt": 2197,
      "etwork": 2198,
      "Ġvideo": 2199,
      "ittee": 2200,
      "Ġvict": 2201,
      "Ġsit": 2202,
      "Ġvol": 2203,
      "ha": 2204,
      "ising": 2205,
      "Ġfind": 2206,
      "ested": 2207,
      "oe": 2208,
      "Ġhold": 2209,
      "ĠâĢľ": 2210,
      "Ġinf": 2211,
      "rated": 2212,
      "Ġrail": 2213,
      "ferred": 2214,
      "ĠCompany": 2215,
      "ĠRed": 2216,
      "unic": 2217,
      "Ġhalf": 2218,
      "As": 2219,
      "ges": 2220,
      "outher": 2221,
      "ecut": 2222,
      "ying": 2223,
      "Ġmult": 2224,
      "ĠWhen": 2225,
      "itect": 2226,
      "Ġsee": 2227,
      "Ġident": 2228,
      "Ġopened": 2229,
      "Ġreview": 2230,
      "de": 2231,
      "rain": 2232,
      "ĠMal": 2233,
      "Ġcomb": 2234,
      "ĠLou": 2235,
      "Ġsocial": 2236,
      "Ġwife": 2237,
      "Ġsite": 2238,
      "Ġstudents": 2239,
      "Ġprofessional": 2240,
      "utes": 2241,
      "ological": 2242,
      "outhern": 2243,
      "ĠJos": 2244,
      "Ġ[": 2245,
      "ĠAmerica": 2246,
      "Ġcoach": 2247,
      "Ġappointed": 2248,
      "ĠCanada": 2249,
      "less": 2250,
      "arter": 2251,
      "ĠMary": 2252,
      "anguage": 2253,
      "Ġcontrol": 2254,
      "estival": 2255,
      "ĠDan": 2256,
      "Ġlim": 2257,
      "Ġreported": 2258,
      "Ġfurther": 2259,
      "ĠThese": 2260,
      "Ġhelp": 2261,
      "Ġartist": 2262,
      "ateg": 2263,
      "Ġpopular": 2264,
      "Ġvillage": 2265,
      "aining": 2266,
      "ences": 2267,
      "ĠGroup": 2268,
      "cent": 2269,
      "uit": 2270,
      "berg": 2271,
      "Ġhon": 2272,
      "Ġbroad": 2273,
      "ividual": 2274,
      "Ġten": 2275,
      "Ġindust": 2276,
      "now": 2277,
      "rig": 2278,
      "dom": 2279,
      "Ġrelease": 2280,
      "Ġreal": 2281,
      "ĠPri": 2282,
      "Ġ2022": 2283,
      "Ġcaus": 2284,
      "Ġeducation": 2285,
      "ĠMuseum": 2286,
      "ĠHen": 2287,
      "wood": 2288,
      "ocratic": 2289,
      "ĠCenter": 2290,
      "otes": 2291,
      "Ġpoint": 2292,
      "Ġcoll": 2293,
      "Ġins": 2294,
      "rag": 2295,
      "Ġworking": 2296,
      "Ġassist": 2297,
      "ĠStud": 2298,
      "Ġlo": 2299,
      "ule": 2300,
      "atic": 2301,
      "ĠMart": 2302,
      "rab": 2303,
      "acy": 2304,
      "ĠDistrict": 2305,
      "Ġappeared": 2306,
      "ĠPat": 2307,
      "Ġ2002": 2308,
      "cher": 2309,
      "Ġemploy": 2310,
      "ification": 2311,
      "Ġmeet": 2312,
      "Ġview": 2313,
      "ccording": 2314,
      "ĠUnion": 2315,
      "Ġmother": 2316,
      "\"|": 2317,
      "CA": 2318,
      "Ġelected": 2319,
      "Ġinj": 2320,
      "ells": 2321,
      "ensive": 2322,
      "Ġ1990": 2323,
      "Ġ2001": 2324,
      "194": 2325,
      "Ġrank": 2326,
      "Ġ100": 2327,
      "ĠTown": 2328,
      "ĠBlack": 2329,
      "Ġbas": 2330,
      "Ġconsidered": 2331,
      "ĠBer": 2332,
      "ĠJack": 2333,
      "23": 2334,
      "Ġfounded": 2335,
      "ĠCap": 2336,
      "ĠNe": 2337,
      "Ġter": 2338,
      "rd": 2339,
      "Ġgradu": 2340,
      "ĠServ": 2341,
      "Ġconne": 2342,
      "Ġpriv": 2343,
      "Ġparty": 2344,
      "Ġdest": 2345,
      "Ġfail": 2346,
      "Ġfund": 2347,
      "Ġeconom": 2348,
      "Ġproper": 2349,
      "wh": 2350,
      "ming": 2351,
      "ĠMusic": 2352,
      "Ġinflu": 2353,
      "Ġlaun": 2354,
      "ults": 2355,
      "Ġmaking": 2356,
      "Ġpopulation": 2357,
      "Ġcampaign": 2358,
      "Ġweek": 2359,
      "rian": 2360,
      "omm": 2361,
      "Ġsimilar": 2362,
      "Ġfight": 2363,
      "ĠRoad": 2364,
      "ĠMag": 2365,
      "ump": 2366,
      "olic": 2367,
      "Ġoffer": 2368,
      "Ġcond": 2369,
      "idence": 2370,
      "Ġroad": 2371,
      "Ġgood": 2372,
      "Ġstruct": 2373,
      "Ġrecorded": 2374,
      "uf": 2375,
      "Ġshould": 2376,
      "itz": 2377,
      "iting": 2378,
      "ademy": 2379,
      "ency": 2380,
      "Ġsurv": 2381,
      "Ġsqu": 2382,
      "ĠWe": 2383,
      "Ġcer": 2384,
      "Ġteams": 2385,
      "iles": 2386,
      "ashington": 2387,
      "ills": 2388,
      "ĠCourt": 2389,
      "Ġarr": 2390,
      "ĠDon": 2391,
      "ĠAlex": 2392,
      "ston": 2393,
      "ĠSam": 2394,
      "burg": 2395,
      "Ġhimself": 2396,
      "ĠAngel": 2397,
      "ĠRoman": 2398,
      "itive": 2399,
      "pite": 2400,
      "ani": 2401,
      "oney": 2402,
      "ĠMy": 2403,
      "ĠDepartment": 2404,
      "ĠSte": 2405,
      "play": 2406,
      "Ġcontract": 2407,
      "iddle": 2408,
      "ka": 2409,
      "aper": 2410,
      "Ġappl": 2411,
      "Ġregion": 2412,
      "duction": 2413,
      "ĠKh": 2414,
      "ĠWith": 2415,
      "25": 2416,
      "Ġformed": 2417,
      "Ġaut": 2418,
      "Ġtog": 2419,
      "Ġcast": 2420,
      "Ġimportant": 2421,
      "Ġdeveloped": 2422,
      "ĠFirst": 2423,
      "Ġmid": 2424,
      "reek": 2425,
      "ĠMad": 2426,
      "Ġfem": 2427,
      "ĠTV": 2428,
      "ample": 2429,
      "Ġdecl": 2430,
      "ili": 2431,
      "Ġtogether": 2432,
      "Ġothers": 2433,
      "Ġcase": 2434,
      "roll": 2435,
      "ably": 2436,
      "ĠRobert": 2437,
      "Ġ/": 2438,
      "lymp": 2439,
      "195": 2440,
      "eph": 2441,
      "ĠThomas": 2442,
      "Ġdistrict": 2443,
      "Ġphot": 2444,
      "ĠGermany": 2445,
      "ĠAustralian": 2446,
      "Ġfoc": 2447,
      "Ġbase": 2448,
      "ither": 2449,
      "igned": 2450,
      "ĠMa": 2451,
      "ĠInstitute": 2452,
      "ĠBest": 2453,
      "Ġacross": 2454,
      "Ġdaughter": 2455,
      "Ġless": 2456,
      "Ġdeg": 2457,
      "Ġrecogn": 2458,
      "ĠMinister": 2459,
      "ĠGrand": 2460,
      "ĠLaw": 2461,
      "Ġevents": 2462,
      "ishing": 2463,
      "ĠTex": 2464,
      "arth": 2465,
      "Ġhow": 2466,
      "apt": 2467,
      "Ġbecom": 2468,
      "ida": 2469,
      "left": 2470,
      "ĠWashington": 2471,
      "ĠSing": 2472,
      "Ġground": 2473,
      "Ġtradition": 2474,
      "ger": 2475,
      "ĠMex": 2476,
      "Ġbody": 2477,
      "aces": 2478,
      "Ġkilled": 2479,
      "Ġareas": 2480,
      "Ar": 2481,
      "Ġdoes": 2482,
      "uty": 2483,
      "Ġ1980": 2484,
      "ĠOlymp": 2485,
      "ota": 2486,
      "Ġz": 2487,
      "chie": 2488,
      "be": 2489,
      "men": 2490,
      "Early": 2491,
      "Ġtro": 2492,
      "ĠSal": 2493,
      "Ġgrow": 2494,
      "iding": 2495,
      "Ġgave": 2496,
      "craft": 2497,
      "Ġcle": 2498,
      "Ġmy": 2499,
      "aker": 2500,
      "Ġfire": 2501,
      "Ġplayers": 2502,
      "icle": 2503,
      "ibr": 2504,
      "Ġperformed": 2505,
      "Ġmater": 2506,
      "ĠSociety": 2507,
      "193": 2508,
      "ĠFilm": 2509,
      "Ġhuman": 2510,
      "anding": 2511,
      "Ġgoal": 2512,
      "Pro": 2513,
      "ospital": 2514,
      "Ġoffice": 2515,
      "Ġavail": 2516,
      "Ġsele": 2517,
      "Ġepisode": 2518,
      "oul": 2519,
      "Ġmonths": 2520,
      "Ġfree": 2521,
      "ona": 2522,
      "ways": 2523,
      "Ġeight": 2524,
      "Ġplaying": 2525,
      "ique": 2526,
      "Ġsuccessful": 2527,
      "Ġperformance": 2528,
      "Ġrace": 2529,
      "Ġdi": 2530,
      "Ġnever": 2531,
      "Ġacqu": 2532,
      "Ġdiv": 2533,
      "ĠYear": 2534,
      "Ġindividual": 2535,
      "arliam": 2536,
      "go": 2537,
      "Ġred": 2538,
      "ĠSer": 2539,
      "ĠRail": 2540,
      "most": 2541,
      "Ġcost": 2542,
      "Ġhous": 2543,
      "ĠGold": 2544,
      "time": 2545,
      "Ġsuff": 2546,
      "Ġguitar": 2547,
      "ym": 2548,
      "ĠSim": 2549,
      "ened": 2550,
      "viron": 2551,
      "ĠJew": 2552,
      "Ġleague": 2553,
      "ceed": 2554,
      "ĠCharles": 2555,
      "ements": 2556,
      "Ġstrong": 2557,
      "arliament": 2558,
      "roy": 2559,
      "oice": 2560,
      "ĠMiss": 2561,
      "odes": 2562,
      "ĠSk": 2563,
      "ĠMont": 2564,
      "band": 2565,
      "Ġlow": 2566,
      "40": 2567,
      "Ġcross": 2568,
      "Ġattempt": 2569,
      "ena": 2570,
      "ĠOp": 2571,
      "Ġaway": 2572,
      "Ġmot": 2573,
      "Ġexist": 2574,
      "Ġrock": 2575,
      "ĠFranc": 2576,
      "ĠPlay": 2577,
      "Ġ1999": 2578,
      "ini": 2579,
      "isl": 2580,
      "elt": 2581,
      "Ġbelie": 2582,
      "It": 2583,
      "ĠVir": 2584,
      "Ġagre": 2585,
      "imately": 2586,
      "Ġeast": 2587,
      "Ġstar": 2588,
      "ĠTra": 2589,
      "Ġ1970": 2590,
      "gress": 2591,
      "ades": 2592,
      "iers": 2593,
      "rown": 2594,
      "Ġcondu": 2595,
      "Ġreb": 2596,
      "ential": 2597,
      "Ġearn": 2598,
      "Ġlive": 2599,
      "aged": 2600,
      "Ġviol": 2601,
      "Ġ50": 2602,
      "Ġdoc": 2603,
      "Ġforces": 2604,
      "ĠSmith": 2605,
      "ability": 2606,
      "Ġfront": 2607,
      "ĠClub": 2608,
      "itch": 2609,
      "Ġthough": 2610,
      "ĠFrom": 2611,
      "gin": 2612,
      "azine": 2613,
      "ĠMark": 2614,
      "Ġimpro": 2615,
      "ators": 2616,
      "text": 2617,
      "Ġfollowed": 2618,
      "Ġput": 2619,
      "ux": 2620,
      "eal": 2621,
      "ĠBay": 2622,
      "Ġcompleted": 2623,
      "Ġprot": 2624,
      "Ġpolice": 2625,
      "ĠAcademy": 2626,
      "ĠCont": 2627,
      "unn": 2628,
      "Ġtraining": 2629,
      "alls": 2630,
      "Ġsepar": 2631,
      "Pl": 2632,
      "here": 2633,
      "Ġlight": 2634,
      "leg": 2635,
      "Ġexhib": 2636,
      "Ġtour": 2637,
      "Ġindepend": 2638,
      "Ġrul": 2639,
      "Ġwest": 2640,
      "ala": 2641,
      "Ġ185": 2642,
      "Ġalthough": 2643,
      "stitut": 2644,
      "Ġtyp": 2645,
      "elling": 2646,
      "ĠYou": 2647,
      "Ġconstruction": 2648,
      "Ġ31": 2649,
      "Ġboard": 2650,
      "Ġnovel": 2651,
      "ĠCanadian": 2652,
      "ula": 2653,
      "Ġphys": 2654,
      "Ġtaken": 2655,
      "ude": 2656,
      "Ġdam": 2657,
      "iction": 2658,
      "ublican": 2659,
      "ĠChina": 2660,
      "Ġstage": 2661,
      "Ġcompos": 2662,
      "atural": 2663,
      "Ġtest": 2664,
      "airs": 2665,
      "ĠScott": 2666,
      "Ġrev": 2667,
      "cle": 2668,
      "Ġmodel": 2669,
      "ura": 2670,
      "ĠVict": 2671,
      "ĠTur": 2672,
      "Ġawarded": 2673,
      "Ġsongs": 2674,
      "ĠJapanese": 2675,
      "28": 2676,
      "Ġfinished": 2677,
      "ĠGreen": 2678,
      "ĠCentral": 2679,
      "Ġet": 2680,
      "Ġcapt": 2681,
      "Ġscored": 2682,
      "ĠIr": 2683,
      "ĠChe": 2684,
      "ĠUK": 2685,
      "atre": 2686,
      "aval": 2687,
      "oo": 2688,
      "Ġdirected": 2689,
      "Ġavailable": 2690,
      "ĠSl": 2691,
      "Ġcirc": 2692,
      "ĠMac": 2693,
      "Ġide": 2694,
      "ilities": 2695,
      "Ġhy": 2696,
      "Ġmodern": 2697,
      "Ġbank": 2698,
      "ĠMet": 2699,
      "Ġstudy": 2700,
      "cial": 2701,
      "istry": 2702,
      "ipal": 2703,
      "Ġmar": 2704,
      "Ġseven": 2705,
      "Ġdev": 2706,
      "iff": 2707,
      "ĠIsland": 2708,
      "Ġcommand": 2709,
      "ĠDire": 2710,
      "Ġ1998": 2711,
      "ificant": 2712,
      "Ġmarket": 2713,
      "ederal": 2714,
      "Cl": 2715,
      "Ġstated": 2716,
      "Ġblack": 2717,
      "ĠTom": 2718,
      "mar": 2719,
      "ĠMichael": 2720,
      "sy": 2721,
      "ĠRussian": 2722,
      "ĠTrans": 2723,
      "Ġtourn": 2724,
      "Ġyou": 2725,
      "den": 2726,
      "rim": 2727,
      "aching": 2728,
      "icated": 2729,
      "shire": 2730,
      ",\"": 2731,
      "II": 2732,
      "Ġstri": 2733,
      "Ġdefe": 2734,
      "Ġassoci": 2735,
      "sec": 2736,
      "uz": 2737,
      "acher": 2738,
      "24": 2739,
      "Ġder": 2740,
      "board": 2741,
      "Ġpaint": 2742,
      "Ġpress": 2743,
      "ĠWestern": 2744,
      "ĠItalian": 2745,
      "ĠMer": 2746,
      "aught": 2747,
      "Ġcour": 2748,
      "andid": 2749,
      "rey": 2750,
      "Ġfeatured": 2751,
      "ado": 2752,
      "urity": 2753,
      "ume": 2754,
      "elected": 2755,
      "ethod": 2756,
      "ĠChic": 2757,
      "ources": 2758,
      "Ġread": 2759,
      "ĠWil": 2760,
      "Ġill": 2761,
      "uture": 2762,
      "head": 2763,
      "vironment": 2764,
      "ĠFrank": 2765,
      "ada": 2766,
      "inese": 2767,
      "Ġremained": 2768,
      "olf": 2769,
      "nder": 2770,
      "Ġ1997": 2771,
      "cts": 2772,
      "ĠLos": 2773,
      "Ġleading": 2774,
      "ĠArch": 2775,
      "ria": 2776,
      "ishop": 2777,
      "Ġexample": 2778,
      "rup": 2779,
      "Ġdesigned": 2780,
      "hood": 2781,
      "26": 2782,
      "umbent": 2783,
      "eep": 2784,
      "Ġable": 2785,
      "ĠTor": 2786,
      "ĠBill": 2787,
      "ĠDemocratic": 2788,
      "ĠPet": 2789,
      "vert": 2790,
      "Ġmust": 2791,
      "Ġaccess": 2792,
      "Ġinvolved": 2793,
      "Ġ1996": 2794,
      "overnor": 2795,
      "Ġthroughout": 2796,
      "Ġloss": 2797,
      "emor": 2798,
      "och": 2799,
      "Ġdou": 2800,
      "erous": 2801,
      "Ġmix": 2802,
      "fic": 2803,
      "iÄ": 2804,
      "Ġcourt": 2805,
      "retary": 2806,
      "Ġarchitect": 2807,
      "ĠBut": 2808,
      "Ġsyn": 2809,
      "ĠCong": 2810,
      "ĠIm": 2811,
      "Ġfeatures": 2812,
      "ĠGreat": 2813,
      "Ġrespons": 2814,
      "Ġenc": 2815,
      "ergy": 2816,
      "=#": 2817,
      "Ġonce": 2818,
      "ĠCath": 2819,
      "Ġknow": 2820,
      "Ġaud": 2821,
      "Sh": 2822,
      "ĠLouis": 2823,
      "Ġinformation": 2824,
      "road": 2825,
      "Ġanim": 2826,
      "This": 2827,
      "west": 2828,
      "ĠTer": 2829,
      "oz": 2830,
      "Ġwriter": 2831,
      "Ġmiss": 2832,
      "atives": 2833,
      "27": 2834,
      "Ġsignificant": 2835,
      "Ġgun": 2836,
      "Ġsen": 2837,
      "29": 2838,
      "pon": 2839,
      "iation": 2840,
      "Ġmaterial": 2841,
      "atory": 2842,
      "Ġhealth": 2843,
      "Ġwind": 2844,
      "ees": 2845,
      "ranch": 2846,
      "sort": 2847,
      "ĠArts": 2848,
      "ĠPeter": 2849,
      "):": 2850,
      "ecutive": 2851,
      "Ġsem": 2852,
      "Ġtre": 2853,
      "Ġsubsequ": 2854,
      "ĠRob": 2855,
      "anish": 2856,
      "Ġconsist": 2857,
      "asing": 2858,
      "ĠHenry": 2859,
      "Ġrights": 2860,
      "Ġeventually": 2861,
      "Ġbar": 2862,
      "ĠCommission": 2863,
      "Ġaver": 2864,
      "hest": 2865,
      "Ġadded": 2866,
      "aying": 2867,
      "Ġlanguage": 2868,
      "Ġwid": 2869,
      "imate": 2870,
      "ĠSuper": 2871,
      "ĠRichard": 2872,
      "Ġ1960": 2873,
      "enc": 2874,
      "Ġget": 2875,
      "hi": 2876,
      "Ġrelation": 2877,
      "Ġearl": 2878,
      "aves": 2879,
      "aled": 2880,
      "Ġcritic": 2881,
      "ĠDay": 2882,
      "Ġentire": 2883,
      "Ġsugg": 2884,
      "ĠParis": 2885,
      "Ġlab": 2886,
      "Ġ1995": 2887,
      "Ġcenter": 2888,
      "Ġbo": 2889,
      "Ġsound": 2890,
      "ĠCarol": 2891,
      "inner": 2892,
      "ano": 2893,
      "Ġoriginally": 2894,
      "serv": 2895,
      "ios": 2896,
      "ularly": 2897,
      "Ġpast": 2898,
      "Ġfourth": 2899,
      "ĠMr": 2900,
      "ĠChicago": 2901,
      "omp": 2902,
      "38": 2903,
      "value": 2904,
      "Ġcountries": 2905,
      "At": 2906,
      "Ġanal": 2907,
      "rael": 2908,
      "ication": 2909,
      "ĠBen": 2910,
      "iano": 2911,
      "ĠAfrican": 2912,
      "Ġincludes": 2913,
      "Ġproble": 2914,
      "CC": 2915,
      "ella": 2916,
      "Ġreplaced": 2917,
      "Ġplan": 2918,
      "ĠCons": 2919,
      "ĠMus": 2920,
      "ĠVol": 2921,
      "ĠMel": 2922,
      "oma": 2923,
      "ĠLeg": 2924,
      "aries": 2925,
      "ros": 2926,
      "Ġprivate": 2927,
      "ST": 2928,
      "bour": 2929,
      "Ġ40": 2930,
      "Ġadminist": 2931,
      "Ġinterest": 2932,
      "Ġreached": 2933,
      "Ġseen": 2934,
      "Ġ1994": 2935,
      "ĠRock": 2936,
      "ĠHam": 2937,
      "ĠSur": 2938,
      "ĠVictor": 2939,
      "Ġrespect": 2940,
      "ender": 2941,
      "ores": 2942,
      "ĠTexas": 2943,
      "Ġgroups": 2944,
      "ĠChristian": 2945,
      "Ġleast": 2946,
      "Career": 2947,
      "Ã¤": 2948,
      "Ġ1992": 2949,
      "...": 2950,
      "Ġpolic": 2951,
      "porary": 2952,
      "Ġfav": 2953,
      "Ġjud": 2954,
      "ĠWhile": 2955,
      "ving": 2956,
      "icles": 2957,
      "Ġ:": 2958,
      "ĠChinese": 2959,
      "Ġtreat": 2960,
      "Ġsubject": 2961,
      "irth": 2962,
      "Ġcandid": 2963,
      "Ġreve": 2964,
      "ids": 2965,
      "Ġmedia": 2966,
      "ras": 2967,
      "Ġwant": 2968,
      "Ġbi": 2969,
      "Ġtravel": 2970,
      "Ġpolitician": 2971,
      "Ġ184": 2972,
      "rel": 2973,
      "Ġlearn": 2974,
      "Ġlargest": 2975,
      "Ġradio": 2976,
      "Ġdeal": 2977,
      "ducation": 2978,
      "Ġsinger": 2979,
      "Ġattended": 2980,
      "va": 2981,
      "ĠAfrica": 2982,
      "Ġnomin": 2983,
      "Ġcivil": 2984,
      "ola": 2985,
      "ĠOl": 2986,
      "Ġplaced": 2987,
      "Ġlook": 2988,
      "Ġshows": 2989,
      "oring": 2990,
      "Ġ#": 2991,
      "Ġdecided": 2992,
      "Ġjournal": 2993,
      "ĠTo": 2994,
      "Un": 2995,
      "Ġnetwork": 2996,
      "ĠWomen": 2997,
      "Ġexpress": 2998,
      "unk": 2999,
      "oms": 3000,
      "aps": 3001,
      "Ġflow": 3002,
      "Ġprovided": 3003,
      "Ġcollege": 3004,
      "ĠGall": 3005,
      "Ġrelig": 3006,
      "medi": 3007,
      "ĠRecords": 3008,
      "ĠSqu": 3009,
      "ĠFestival": 3010,
      "Ġmus": 3011,
      "ĠHill": 3012,
      "Ġkey": 3013,
      "istic": 3014,
      "read": 3015,
      "ength": 3016,
      "ems": 3017,
      "order": 3018,
      "Ġchange": 3019,
      "Ġvocals": 3020,
      "igan": 3021,
      "Ġsaw": 3022,
      "Ġ1993": 3023,
      "rought": 3024,
      "Ġdivision": 3025,
      ");": 3026,
      "Ġsus": 3027,
      "anta": 3028,
      "ollowing": 3029,
      "earch": 3030,
      "eleb": 3031,
      "erve": 3032,
      "Ġinvestig": 3033,
      "ĠWhite": 3034,
      "Ġcontribut": 3035,
      "ĠKingdom": 3036,
      "ĠBattle": 3037,
      "ift": 3038,
      "asc": 3039,
      "ĠRepublican": 3040,
      "ki": 3041,
      "Ġcompan": 3042,
      "Ġser": 3043,
      "iple": 3044,
      "Ġupon": 3045,
      "Ġes": 3046,
      "annel": 3047,
      "ĠCommittee": 3048,
      "Ġpark": 3049,
      "De": 3050,
      "Ġvia": 3051,
      "ĠVirgin": 3052,
      "Ġwhite": 3053,
      "Ġtournament": 3054,
      "Ġ(\"": 3055,
      "Ġeither": 3056,
      "ource": 3057,
      "asket": 3058,
      "Ġ=": 3059,
      "ĠForce": 3060,
      "Ġbehind": 3061,
      "ĠCal": 3062,
      "Ġpot": 3063,
      "Re": 3064,
      "Ġprem": 3065,
      "Ġeffort": 3066,
      "Ġclose": 3067,
      "ĠFore": 3068,
      "attal": 3069,
      "ply": 3070,
      "TV": 3071,
      "Ġnight": 3072,
      "Ġcop": 3073,
      "Ġdegree": 3074,
      "ĠCamp": 3075,
      "Ġplann": 3076,
      "mercial": 3077,
      "Ġchart": 3078,
      "ription": 3079,
      "Ġclos": 3080,
      "Ġste": 3081,
      "ĠAngeles": 3082,
      "Ġachie": 3083,
      "inals": 3084,
      "rial": 3085,
      "lor": 3086,
      "yr": 3087,
      "umn": 3088,
      "Ġcompetition": 3089,
      "Ġ1991": 3090,
      "Ġfilms": 3091,
      "ita": 3092,
      "Ġsex": 3093,
      "ĠInter": 3094,
      "ĠBur": 3095,
      "Ġspace": 3096,
      "za": 3097,
      "Ġaction": 3098,
      "ye": 3099,
      "Ġqualif": 3100,
      "ibrary": 3101,
      "eck": 3102,
      "atin": 3103,
      "Ġschools": 3104,
      "ĠDo": 3105,
      "ĠTeam": 3106,
      "Ġdraw": 3107,
      "Ġplant": 3108,
      "Ġpur": 3109,
      "sel": 3110,
      "ception": 3111,
      "ĠAwards": 3112,
      "Ġbuildings": 3113,
      "ension": 3114,
      "reland": 3115,
      "Ġpurch": 3116,
      "ĠJust": 3117,
      "Ġfig": 3118,
      "Ġaircraft": 3119,
      "writ": 3120,
      "ĠBank": 3121,
      "Ġstates": 3122,
      "face": 3123,
      "mb": 3124,
      "ĠMil": 3125,
      "ĠGra": 3126,
      "Ġconv": 3127,
      "Ġcentral": 3128,
      "ĠPenn": 3129,
      "60": 3130,
      "ĠIsrael": 3131,
      "based": 3132,
      "ĠDel": 3133,
      "Ġwinning": 3134,
      "Ġoccur": 3135,
      "Ġinstead": 3136,
      "uter": 3137,
      "Ġfif": 3138,
      "Ġabove": 3139,
      "Ġrange": 3140,
      "Ġcou": 3141,
      "Wh": 3142,
      "arian": 3143,
      "ĠRepublic": 3144,
      "ĠRev": 3145,
      "ribution": 3146,
      "iences": 3147,
      "Ġparen": 3148,
      "Ġdiscover": 3149,
      "Ġ()": 3150,
      "ĠBu": 3151,
      "Ġsch": 3152,
      "Ġhom": 3153,
      "Ġliter": 3154,
      "ĠAccording": 3155,
      "raw": 3156,
      "Ġhit": 3157,
      "atal": 3158,
      "utch": 3159,
      "ĠSpanish": 3160,
      "Ġproducer": 3161,
      "Ġ2023": 3162,
      "edy": 3163,
      "oviet": 3164,
      "Ġpreviously": 3165,
      "SA": 3166,
      "uke": 3167,
      "olit": 3168,
      "azz": 3169,
      "Ġcy": 3170,
      "Ġactive": 3171,
      "Ġsil": 3172,
      "onn": 3173,
      "cell": 3174,
      "Ġarg": 3175,
      "Ġstudio": 3176,
      "FL": 3177,
      "iqu": 3178,
      "arily": 3179,
      "Äģ": 3180,
      "Ġsection": 3181,
      "ises": 3182,
      "stant": 3183,
      "ĠLake": 3184,
      "Ġintroduced": 3185,
      "ÅĤ": 3186,
      "ĠChief": 3187,
      "Ġruns": 3188,
      "aur": 3189,
      "ĠNavy": 3190,
      "Ġgold": 3191,
      "Ã¨": 3192,
      "Ġgrand": 3193,
      "ĠStar": 3194,
      "Ġvari": 3195,
      "ĠCarl": 3196,
      "ĠSecond": 3197,
      "Ġbooks": 3198,
      "ID": 3199,
      "ware": 3200,
      "Ġmount": 3201,
      "Ġbroadcast": 3202,
      "ĠBus": 3203,
      "airman": 3204,
      "Ġtowards": 3205,
      "ĠJun": 3206,
      "ĠIncumbent": 3207,
      "irm": 3208,
      "Ġneigh": 3209,
      "Ġmeas": 3210,
      "Ġdocument": 3211,
      "Ġneg": 3212,
      "clus": 3213,
      "oke": 3214,
      "ĠÂ": 3215,
      "ĠPan": 3216,
      "ĠClass": 3217,
      "Ġactor": 3218,
      "Ġlik": 3219,
      "Ġcut": 3220,
      "ste": 3221,
      "Ġ1989": 3222,
      "Ġnowrap": 3223,
      "ror": 3224,
      "Ġmass": 3225,
      "Ġmovement": 3226,
      "ĠService": 3227,
      "stitution": 3228,
      "ĠCatholic": 3229,
      "ounter": 3230,
      "Ġaccept": 3231,
      "Person": 3232,
      "Ġweb": 3233,
      "aring": 3234,
      "hold": 3235,
      "Ġprovide": 3236,
      "Ġesc": 3237,
      "kn": 3238,
      "Ġleader": 3239,
      "chan": 3240,
      "ĠAnn": 3241,
      "Ġended": 3242,
      "FA": 3243,
      "oys": 3244,
      "Ġfall": 3245,
      "ĠGo": 3246,
      "ta": 3247,
      "istics": 3248,
      "ĠCast": 3249,
      "ript": 3250,
      "ĠFlor": 3251,
      "Ġfar": 3252,
      "Ġcurrently": 3253,
      "illa": 3254,
      "iro": 3255,
      "ĠKn": 3256,
      "Ġbrought": 3257,
      "ĠSome": 3258,
      "Ġrelationship": 3259,
      "Ġorganization": 3260,
      "Ġsitu": 3261,
      "gy": 3262,
      "Ġestablish": 3263,
      "Ġwhose": 3264,
      "Ġlower": 3265,
      "ĠFootball": 3266,
      "ĠGovernment": 3267,
      ".)": 3268,
      "ĠTwo": 3269,
      "Ġoccup": 3270,
      "ĠAtl": 3271,
      "Ġchampionship": 3272,
      "venue": 3273,
      "ĠFort": 3274,
      "Ġusually": 3275,
      "ĠSaint": 3276,
      "iÄĩ": 3277,
      "Ġgoals": 3278,
      "tar": 3279,
      "ĠFound": 3280,
      "anda": 3281,
      "\")": 3282,
      "Ġrather": 3283,
      "Ġvictory": 3284,
      "ams": 3285,
      "Ġreason": 3286,
      "alled": 3287,
      "Ġask": 3288,
      "zil": 3289,
      "Ġmethod": 3290,
      "olk": 3291,
      "Ġwriting": 3292,
      "ĠGeorg": 3293,
      "33": 3294,
      "During": 3295,
      "ĠBo": 3296,
      "ĠKore": 3297,
      "Ġoutside": 3298,
      "ĠSeries": 3299,
      "aut": 3300,
      "ping": 3301,
      "ĠBrown": 3302,
      "Amer": 3303,
      "pts": 3304,
      "Ġpred": 3305,
      "ows": 3306,
      "urt": 3307,
      "Ġgirl": 3308,
      "Ġdefeated": 3309,
      "isher": 3310,
      "Ġprison": 3311,
      "Ġmur": 3312,
      "ĠGod": 3313,
      "Ġcommission": 3314,
      "ĠSa": 3315,
      "position": 3316,
      "Ġhard": 3317,
      "Ġresults": 3318,
      "lim": 3319,
      "Ġregular": 3320,
      "ancial": 3321,
      "ĠSil": 3322,
      "Ġlaunched": 3323,
      "ĠTour": 3324,
      "aches": 3325,
      "Ġcapital": 3326,
      "80": 3327,
      "ĠEr": 3328,
      "ĠUk": 3329,
      "bb": 3330,
      "Ġpoet": 3331,
      "Ġlisted": 3332,
      "ĠBoard": 3333,
      "Ġoperations": 3334,
      "ĠMur": 3335,
      "Ġtaking": 3336,
      "ĠBook": 3337,
      "unity": 3338,
      "down": 3339,
      "Ġpain": 3340,
      "pecially": 3341,
      "70": 3342,
      "Ġdu": 3343,
      "ĠWin": 3344,
      "ĠJoseph": 3345,
      "Ġcollection": 3346,
      "idents": 3347,
      "Ġstop": 3348,
      "stra": 3349,
      "Ġpossible": 3350,
      "Ġforce": 3351,
      "ibility": 3352,
      "Ġdeterm": 3353,
      "asketball": 3354,
      "Ġ1988": 3355,
      "ufact": 3356,
      "Ġmean": 3357,
      "Ġball": 3358,
      "well": 3359,
      "Ġmanager": 3360,
      "Ġscore": 3361,
      "BA": 3362,
      "ection": 3363,
      "Ġfocus": 3364,
      "Ġallowed": 3365,
      "Ã³n": 3366,
      "Ġtransl": 3367,
      "ires": 3368,
      "ĠYoung": 3369,
      "Ġwoman": 3370,
      "Ġindustry": 3371,
      "thlet": 3372,
      "enced": 3373,
      "ĠMill": 3374,
      "ites": 3375,
      "teg": 3376,
      "ĠSir": 3377,
      "Ġcare": 3378,
      "Ġpers": 3379,
      "gl": 3380,
      "Ġrefer": 3381,
      "Ġbur": 3382,
      "Ġalmost": 3383,
      "Ġ1950": 3384,
      "ette": 3385,
      "Ġregard": 3386,
      "Ġliving": 3387,
      "atform": 3388,
      "sych": 3389,
      "ĠWood": 3390,
      "Ġdon": 3391,
      "Ġ48": 3392,
      "ĠMexico": 3393,
      "ĠIreland": 3394,
      "Ġofficer": 3395,
      "Ġconcern": 3396,
      "ĠLee": 3397,
      "Ġcomplet": 3398,
      "press": 3399,
      "Ġcred": 3400,
      "bl": 3401,
      "Ġche": 3402,
      "Ġobject": 3403,
      "like": 3404,
      "pected": 3405,
      "Ġpractice": 3406,
      "tained": 3407,
      "Ġran": 3408,
      "Ġmoney": 3409,
      "Ġarmy": 3410,
      "Ġcompanies": 3411,
      "Ġstudies": 3412,
      "mark": 3413,
      "ends": 3414,
      "ider": 3415,
      "Ġparts": 3416,
      "Ġbeginning": 3417,
      "Ġartists": 3418,
      "ipl": 3419,
      "ato": 3420,
      "Ġfuture": 3421,
      "Ġadditional": 3422,
      "Ġnar": 3423,
      "Ġselected": 3424,
      "Åį": 3425,
      "Ġfarm": 3426,
      "Ġstaff": 3427,
      "antry": 3428,
      "antic": 3429,
      "ky": 3430,
      "inary": 3431,
      "inent": 3432,
      "Ġprimary": 3433,
      "ready": 3434,
      "str": 3435,
      "Ġceleb": 3436,
      "For": 3437,
      "Ġremov": 3438,
      "Ġimm": 3439,
      "ĠOrder": 3440,
      "Ġdecision": 3441,
      "ĠSoviet": 3442,
      "ĠOper": 3443,
      "ĠFred": 3444,
      "Ġmatches": 3445,
      "ĠPac": 3446,
      "Ġbreak": 3447,
      "Ġever": 3448,
      "Ġquest": 3449,
      "ko": 3450,
      "ĠĠĠĠĠĠĠĠ": 3451,
      "Ġentered": 3452,
      "Ġtoo": 3453,
      "Ġ1986": 3454,
      "lement": 3455,
      "lam": 3456,
      "ands": 3457,
      "ĠIll": 3458,
      "Ġmagazine": 3459,
      "Ġunits": 3460,
      "Ġspent": 3461,
      "ĠProv": 3462,
      "Ġbattle": 3463,
      "rade": 3464,
      "Ġanti": 3465,
      "ĠJim": 3466,
      "ĠScot": 3467,
      "ĠRos": 3468,
      "ĠItaly": 3469,
      "ĠZeal": 3470,
      "Ġwood": 3471,
      "bur": 3472,
      "Ġlittle": 3473,
      "Ġfunction": 3474,
      "Ġnoted": 3475,
      "Ġ1985": 3476,
      "Ġstudied": 3477,
      "Ġaccording": 3478,
      "90": 3479,
      "Ġpay": 3480,
      "mond": 3481,
      "ĠHa": 3482,
      "ĠChampionships": 3483,
      "eff": 3484,
      "NA": 3485,
      "Ġmer": 3486,
      "Ġfrequ": 3487,
      "Ġissues": 3488,
      "velopment": 3489,
      "ĠDen": 3490,
      "Ġsenior": 3491,
      "Ġ1987": 3492,
      "ĠTechn": 3493,
      "Ġopening": 3494,
      "Ġsummer": 3495,
      "ĠOld": 3496,
      "Ġaverage": 3497,
      "adium": 3498,
      "ĠDirector": 3499,
      "Ġprior": 3500,
      "change": 3501,
      "oted": 3502,
      "Ġwhom": 3503,
      "Ġdram": 3504,
      "Ġveh": 3505,
      "ban": 3506,
      "fit": 3507,
      "ĠZealand": 3508,
      "olar": 3509,
      "Ġlet": 3510,
      "ĠWork": 3511,
      "udd": 3512,
      "ĠCongress": 3513,
      "Ġsoon": 3514,
      "Ġsystems": 3515,
      "Ġden": 3516,
      "Ġquarter": 3517,
      "ĠRh": 3518,
      "ometimes": 3519,
      "ications": 3520,
      "ih": 3521,
      "ĠMo": 3522,
      "iana": 3523,
      "iled": 3524,
      "Ġstructure": 3525,
      "ples": 3526,
      "Ġsum": 3527,
      "known": 3528,
      "ingu": 3529,
      "ĠMartin": 3530,
      "She": 3531,
      "orse": 3532,
      "key": 3533,
      "ĠOver": 3534,
      "embly": 3535,
      "Ġnatural": 3536,
      "ĠScience": 3537,
      "tic": 3538,
      "Ġself": 3539,
      "Ġriver": 3540,
      "Ġculture": 3541,
      "Ġcollabor": 3542,
      "ĠInf": 3543,
      "ĠMod": 3544,
      "New": 3545,
      "ĠGar": 3546,
      "uten": 3547,
      "istan": 3548,
      "Ġchanged": 3549,
      "wer": 3550,
      "Ġdestroy": 3551,
      "Ġlove": 3552,
      "35": 3553,
      "isco": 3554,
      "icro": 3555,
      "Ġpie": 3556,
      "ĠBrazil": 3557,
      "ĠSwed": 3558,
      "Ġclosed": 3559,
      "acing": 3560,
      "Ġfemale": 3561,
      "Ġpersonal": 3562,
      "Ġenvironment": 3563,
      "American": 3564,
      "ero": 3565,
      "Ġapprox": 3566,
      "Ġtype": 3567,
      "cel": 3568,
      "Ġobserv": 3569,
      "Ġretired": 3570,
      "inated": 3571,
      "awa": 3572,
      "Ġemer": 3573,
      "Ġcomplex": 3574,
      "attalion": 3575,
      "Ġrequired": 3576,
      "FC": 3577,
      "ĠEngine": 3578,
      "Ġprinc": 3579,
      "Ġcommercial": 3580,
      "Ġcharacters": 3581,
      "rying": 3582,
      "Ġappearance": 3583,
      "Ġkeep": 3584,
      "ĠMos": 3585,
      "Ġunit": 3586,
      "Ġespecially": 3587,
      "Ġblock": 3588,
      "ĠPress": 3589,
      "overs": 3590,
      "Ġ1984": 3591,
      "igg": 3592,
      "enth": 3593,
      "ĠPre": 3594,
      "Ġarrest": 3595,
      "Ġdate": 3596,
      "ira": 3597,
      "ĠLove": 3598,
      "There": 3599,
      "Ġlength": 3600,
      "Ġbecoming": 3601,
      "Ġking": 3602,
      "yan": 3603,
      "Ġarran": 3604,
      "ĠMass": 3605,
      "ĠOther": 3606,
      "arriage": 3607,
      "Ġearlier": 3608,
      "ua": 3609,
      "uments": 3610,
      "ĠHow": 3611,
      "Ġrad": 3612,
      "Ġroute": 3613,
      "ĠArab": 3614,
      "ĠSub": 3615,
      "obal": 3616,
      "Ġmove": 3617,
      "Ġdom": 3618,
      "Ġcome": 3619,
      "ĠPublic": 3620,
      "ĠIts": 3621,
      "Ġitself": 3622,
      "Ġsquad": 3623,
      "ĠSun": 3624,
      "ĠDef": 3625,
      "heast": 3626,
      "ĠRegiment": 3627,
      "Ġtrain": 3628,
      "Ġlack": 3629,
      "ĠHon": 3630,
      "itiz": 3631,
      "Ġalready": 3632,
      "iography": 3633,
      "emporary": 3634,
      "ora": 3635,
      "reme": 3636,
      "ĠResearch": 3637,
      "Ġhighest": 3638,
      "ĠEmp": 3639,
      "Ġfood": 3640,
      "Ġemb": 3641,
      "rich": 3642,
      "igital": 3643,
      "Ġinitially": 3644,
      "Ġcoast": 3645,
      "ultural": 3646,
      "Ġinterview": 3647,
      "ĠDou": 3648,
      "ĠVirginia": 3649,
      "Ġproperty": 3650,
      "ĠTri": 3651,
      "Ġactivities": 3652,
      "pecial": 3653,
      "Ġcourse": 3654,
      "Ġshot": 3655,
      "ĠMat": 3656,
      "ĠOh": 3657,
      "Ġedition": 3658,
      "Ġrunning": 3659,
      "Ġearned": 3660,
      "Ġtraditional": 3661,
      "Ġtax": 3662,
      "ĠWal": 3663,
      "ils": 3664,
      "bon": 3665,
      "ĠJud": 3666,
      "usband": 3667,
      "Ġhigher": 3668,
      "Ġchief": 3669,
      "background": 3670,
      "Ad": 3671,
      "ylvan": 3672,
      "isions": 3673,
      "plement": 3674,
      "ulture": 3675,
      "Ġkm": 3676,
      "Ġrelated": 3677,
      "Ġdrop": 3678,
      "ault": 3679,
      "Ġadop": 3680,
      "Ġterrit": 3681,
      "Ġsaf": 3682,
      "Ġnewsp": 3683,
      "ĠTimes": 3684,
      "ecess": 3685,
      "ĠAv": 3686,
      "ĠRussia": 3687,
      ";\"|": 3688,
      "Ġmanagement": 3689,
      "ĠCam": 3690,
      "Ġ1983": 3691,
      "Ġraised": 3692,
      "Ġlived": 3693,
      "anded": 3694,
      "ĠCO": 3695,
      "ĠEv": 3696,
      "Ġowned": 3697,
      "ĠDis": 3698,
      "Ġeditor": 3699,
      "Ġsuper": 3700,
      "imb": 3701,
      "Ġstudent": 3702,
      "ĠIrish": 3703,
      "ĠFre": 3704,
      "la": 3705,
      "ĠEducation": 3706,
      "Ġplatform": 3707,
      "izing": 3708,
      "ski": 3709,
      "lying": 3710,
      "ĠMost": 3711,
      "Ġtransport": 3712,
      "ĠJer": 3713,
      "ĠOut": 3714,
      "span": 3715,
      "Ġincreased": 3716,
      "ĠParliament": 3717,
      "Ġanc": 3718,
      "Ġsat": 3719,
      "Ġoverall": 3720,
      "Ġchanges": 3721,
      "ĠCarolina": 3722,
      "action": 3723,
      "Ġminor": 3724,
      "Ġcaused": 3725,
      "Ġindependent": 3726,
      "Ġprofessor": 3727,
      "standing": 3728,
      "Ġexam": 3729,
      "Ġtext": 3730,
      "Ġdiffic": 3731,
      "ĠFlorida": 3732,
      "Ġcertain": 3733,
      "ĠProfess": 3734,
      "ĠAlthough": 3735,
      "Ġlocation": 3736,
      "ĠDi": 3737,
      "wan": 3738,
      "Ġmission": 3739,
      "Ġissue": 3740,
      "Ġbox": 3741,
      "ĠMichigan": 3742,
      "Ġbetter": 3743,
      "ĠSong": 3744,
      "ares": 3745,
      "Ġequip": 3746,
      "ny": 3747,
      "Ġcust": 3748,
      "Ġmedal": 3749,
      "Ġmanufact": 3750,
      "uan": 3751,
      "oston": 3752,
      "Ġforced": 3753,
      "Ġmedical": 3754,
      "Ġbirth": 3755,
      "Ġgot": 3756,
      "ĠFin": 3757,
      "ĠGal": 3758,
      "Le": 3759,
      "ĠTele": 3760,
      "Ġteacher": 3761,
      "Ġdifficult": 3762,
      "Ġcontains": 3763,
      "Ġnumerous": 3764,
      "ulated": 3765,
      "Ġsister": 3766,
      "vention": 3767,
      "ylvania": 3768,
      "Ġminutes": 3769,
      "Ġstandard": 3770,
      "nel": 3771,
      "onse": 3772,
      "Ġens": 3773,
      "ĠNorthern": 3774,
      "Ġtrade": 3775,
      "Ġer": 3776,
      "Ġscient": 3777,
      "ĠSpace": 3778,
      "Ġwide": 3779,
      "Ġchall": 3780,
      "ĠIII": 3781,
      "ĠHaw": 3782,
      "Ġgoing": 3783,
      "Ġthus": 3784,
      "Ġrailway": 3785,
      ":#": 3786,
      "Ġmeans": 3787,
      "ĠSecretary": 3788,
      "house": 3789,
      "eds": 3790,
      "cing": 3791,
      "Ġsouthern": 3792,
      "Ġscreen": 3793,
      "ĠLin": 3794,
      "ieuten": 3795,
      "onym": 3796,
      "mitted": 3797,
      "ctive": 3798,
      "oid": 3799,
      "Ġ1981": 3800,
      "Mar": 3801,
      "Ġ1982": 3802,
      "Ġnorthern": 3803,
      "ken": 3804,
      "cting": 3805,
      "abit": 3806,
      "ĠPolice": 3807,
      "ĠValley": 3808,
      "ĠJohnson": 3809,
      "Ã§": 3810,
      "Ġi": 3811,
      "Ġge": 3812,
      "with": 3813,
      "Ġinn": 3814,
      "Ġshoot": 3815,
      "amily": 3816,
      "Ġmajority": 3817,
      "inet": 3818,
      "ĠOffic": 3819,
      "Ġsurround": 3820,
      "Ġtarg": 3821,
      "AR": 3822,
      "ĠJewish": 3823,
      "Ġtroops": 3824,
      "win": 3825,
      "Ġmunic": 3826,
      "rief": 3827,
      "ĠJul": 3828,
      "oper": 3829,
      "anced": 3830,
      "Ġcreate": 3831,
      "arden": 3832,
      "Ġdiscuss": 3833,
      "ĠJo": 3834,
      "not": 3835,
      "ĠColumb": 3836,
      "eeks": 3837,
      "Ġfeature": 3838,
      "ĠBh": 3839,
      "Ġassociated": 3840,
      "Ġjob": 3841,
      "ĠMcC": 3842,
      "ĠHot": 3843,
      "ĠQueen": 3844,
      "ieutenant": 3845,
      "aka": 3846,
      "Ġ1979": 3847,
      "ĠCle": 3848,
      "iance": 3849,
      "ĠWilliams": 3850,
      "ĠThat": 3851,
      "Ġnine": 3852,
      "ĠÐ": 3853,
      "ĠBre": 3854,
      "Ġmeeting": 3855,
      "ĠLong": 3856,
      "rative": 3857,
      "Ġsom": 3858,
      "ĠCentre": 3859,
      "ĠBig": 3860,
      "ati": 3861,
      "ĠSund": 3862,
      "bury": 3863,
      "Ġlegal": 3864,
      "aya": 3865,
      "km": 3866,
      "Ġpassed": 3867,
      "Ġhelped": 3868,
      "mission": 3869,
      "Ġinsp": 3870,
      "Ġgrant": 3871,
      "adel": 3872,
      "ĠCorps": 3873,
      "Ġhours": 3874,
      "put": 3875,
      "Ġmusical": 3876,
      "BS": 3877,
      "iger": 3878,
      "Ġpen": 3879,
      "Ġclaimed": 3880,
      "pre": 3881,
      "ĠLife": 3882,
      "Ġsupported": 3883,
      "Ġlines": 3884,
      "Ġshown": 3885,
      "Ġgenerally": 3886,
      "ĠLord": 3887,
      "Ġserving": 3888,
      "ĠEdward": 3889,
      "Ġmurder": 3890,
      "ĠDutch": 3891,
      "Ġ1945": 3892,
      "Ġthought": 3893,
      "Ġ1968": 3894,
      "irt": 3895,
      "iring": 3896,
      "Ġarm": 3897,
      "Ġcell": 3898,
      "sen": 3899,
      "rupt": 3900,
      "Ġfle": 3901,
      "Ġhapp": 3902,
      "Ġ1940": 3903,
      "ĠConference": 3904,
      "Ġhusband": 3905,
      "Ġeconomic": 3906,
      "Ġplays": 3907,
      "ĠBow": 3908,
      "ias": 3909,
      "Ġmultiple": 3910,
      "Ġresponse": 3911,
      "Ġcomplete": 3912,
      "Ġsubsequently": 3913,
      "Ġrecording": 3914,
      "imum": 3915,
      "Ġseat": 3916,
      "ĠFoundation": 3917,
      "190": 3918,
      "Ġindic": 3919,
      "ums": 3920,
      "ĠUp": 3921,
      "Ġapproximately": 3922,
      "Ġbass": 3923,
      "sylvania": 3924,
      "Ġacquired": 3925,
      "ĠTro": 3926,
      "John": 3927,
      "Ġterms": 3928,
      "Ġappearances": 3929,
      "Ġrap": 3930,
      "Ġlimited": 3931,
      "Ġpresented": 3932,
      "vis": 3933,
      "itation": 3934,
      "ounded": 3935,
      "mm": 3936,
      "Ġrepresented": 3937,
      "ĠSince": 3938,
      "ĠGames": 3939,
      "Ġ1972": 3940,
      "vey": 3941,
      "Ġcal": 3942,
      "Ġisland": 3943,
      "Ġuniversity": 3944,
      "Ġimmedi": 3945,
      "ela": 3946,
      "Ġoperated": 3947,
      "ĠBoston": 3948,
      "bre": 3949,
      "Ġgra": 3950,
      "Ġannual": 3951,
      "Ġleaving": 3952,
      "ĠUnder": 3953,
      "Ġ1978": 3954,
      "Ġ1975": 3955,
      "Ġaccount": 3956,
      "Ġparents": 3957,
      "Ġgive": 3958,
      "Ġpick": 3959,
      "ersey": 3960,
      "Ġded": 3961,
      "Ġ1976": 3962,
      "Ġprop": 3963,
      "All": 3964,
      "Ġstarting": 3965,
      "Ġquick": 3966,
      "ĠCross": 3967,
      "ĠHy": 3968,
      "ĠLine": 3969,
      "Ġsize": 3970,
      "36": 3971,
      "ĠSouthern": 3972,
      "ĠSar": 3973,
      "Ġactress": 3974,
      "ĠLuc": 3975,
      "ĠBob": 3976,
      "ng": 3977,
      "37": 3978,
      "ĠEll": 3979,
      "ĠBas": 3980,
      "Ġbelow": 3981,
      "Ġabs": 3982,
      "Ġuses": 3983,
      "Ġ1977": 3984,
      "ĠBrig": 3985,
      "ĠLand": 3986,
      "ĠWales": 3987,
      "ĠOs": 3988,
      "ĠSpr": 3989,
      "Ġprograms": 3990,
      "ĠLu": 3991,
      "ĠLater": 3992,
      "ĠVer": 3993,
      "Ġ1974": 3994,
      "Ġfailed": 3995,
      "irit": 3996,
      "Ġprob": 3997,
      "45": 3998,
      "see": 3999,
      "Ġord": 4000,
      "Ġfinancial": 4001,
      "Ġweeks": 4002,
      "ali": 4003,
      "Ġtakes": 4004,
      "Ġdefeat": 4005,
      "rast": 4006,
      "aine": 4007,
      "ĠHealth": 4008,
      "hy": 4009,
      "Ġbene": 4010,
      "ients": 4011,
      "Ġfort": 4012,
      "Ġnews": 4013,
      "ansas": 4014,
      "Ġthreat": 4015,
      "Ġlos": 4016,
      "orpor": 4017,
      "Ġsometimes": 4018,
      "Ġcompl": 4019,
      "ĠMah": 4020,
      "Ġgener": 4021,
      "oir": 4022,
      "ĠPolish": 4023,
      "ounds": 4024,
      "wide": 4025,
      "Ġremains": 4026,
      "ĠPrem": 4027,
      "add": 4028,
      "Ge": 4029,
      "Ġcarried": 4030,
      "Ġsched": 4031,
      "Ġremaining": 4032,
      "mann": 4033,
      "ĠJr": 4034,
      "ucle": 4035,
      "isation": 4036,
      "ĠMatt": 4037,
      "ĠTim": 4038,
      "Ġ1969": 4039,
      "Ġcentre": 4040,
      "stein": 4041,
      "With": 4042,
      "Ġ60": 4043,
      "een": 4044,
      "Ġevidence": 4045,
      "Ġcases": 4046,
      "Ġincrease": 4047,
      "vement": 4048,
      "ador": 4049,
      "Ġremain": 4050,
      "AC": 4051,
      "track": 4052,
      "Ġstep": 4053,
      "ulf": 4054,
      "Ġsequ": 4055,
      "rison": 4056,
      "abeth": 4057,
      "ĠCharl": 4058,
      "Personal": 4059,
      "ĠBor": 4060,
      "ĠRam": 4061,
      "Ġcolon": 4062,
      "ĠFer": 4063,
      "Ã±": 4064,
      "inem": 4065,
      "ĠCD": 4066,
      "ĠFrancisco": 4067,
      "AT": 4068,
      "ila": 4069,
      "ĠJones": 4070,
      "ĠPacific": 4071,
      "Ġreligious": 4072,
      "ĠLem": 4073,
      "ĠSocial": 4074,
      "kin": 4075,
      "ĠTime": 4076,
      "Ġseasons": 4077,
      "iy": 4078,
      "Ġphil": 4079,
      "Ġ1973": 4080,
      "ĠRadio": 4081,
      "Ġ1942": 4082,
      "ysis": 4083,
      "ja": 4084,
      "eld": 4085,
      "ternal": 4086,
      "Con": 4087,
      "ening": 4088,
      "Ġpra": 4089,
      "Ġpromoted": 4090,
      "39": 4091,
      "fect": 4092,
      "ademic": 4093,
      "Ġoffered": 4094,
      "ĠLiber": 4095,
      "ĠÅ": 4096,
      "etic": 4097,
      "Ġoccas": 4098,
      "Ġdetail": 4099,
      "gian": 4100,
      "Ġpercent": 4101,
      "Ġparticular": 4102,
      "Ġlonger": 4103,
      "34": 4104,
      "mas": 4105,
      "inois": 4106,
      "wa": 4107,
      "ĠGreek": 4108,
      "Ġassistant": 4109,
      "Ġparticularly": 4110,
      "Ġpartn": 4111,
      "aters": 4112,
      "75": 4113,
      "Ġsports": 4114,
      "ĠSo": 4115,
      "isk": 4116,
      "Ġsurface": 4117,
      "ĠTheatre": 4118,
      "Ġelections": 4119,
      "rance": 4120,
      "Ġstatus": 4121,
      "Ġexperience": 4122,
      "tainment": 4123,
      "burgh": 4124,
      "ĠRaj": 4125,
      "unc": 4126,
      "ĠRailway": 4127,
      "arters": 4128,
      "Ġscience": 4129,
      "ĠDev": 4130,
      "ledge": 4131,
      ";\"": 4132,
      "Ġgraduated": 4133,
      "Ġsea": 4134,
      "Ġcharg": 4135,
      "teen": 4136,
      "Ġpolicy": 4137,
      "Ġ1966": 4138,
      "=\"#": 4139,
      "ĠPennsylvania": 4140,
      "ĠJackson": 4141,
      "uries": 4142,
      "elled": 4143,
      "ĠAlexander": 4144,
      "ĠOffice": 4145,
      "ĠCivil": 4146,
      "ima": 4147,
      "chen": 4148,
      "Ġ1930": 4149,
      "ties": 4150,
      "Ġvote": 4151,
      "Ġmostly": 4152,
      "2012": 4153,
      "ĠManag": 4154,
      "Ġmaster": 4155,
      "Ġheavy": 4156,
      "Ġ1971": 4157,
      "Ġprevent": 4158,
      "emorial": 4159,
      "Ġdepart": 4160,
      "iant": 4161,
      "itting": 4162,
      "Ġdone": 4163,
      "ols": 4164,
      "ĠKong": 4165,
      "ĠOlympic": 4166,
      "urban": 4167,
      "Ġtracks": 4168,
      "selves": 4169,
      "Ġthemselves": 4170,
      "ĠMen": 4171,
      "ously": 4172,
      "ĠPortug": 4173,
      "ĠEastern": 4174,
      "Ġhospital": 4175,
      "Ġ1964": 4176,
      "ĠEmpire": 4177,
      "Ġtrib": 4178,
      "Sc": 4179,
      "Ġbridge": 4180,
      "Ġtransferred": 4181,
      "2010": 4182,
      "aug": 4183,
      "oud": 4184,
      "gency": 4185,
      "itors": 4186,
      "Ġopt": 4187,
      "ampions": 4188,
      "ession": 4189,
      "Ġcrew": 4190,
      "Ġsaying": 4191,
      "ulations": 4192,
      "Ġlatter": 4193,
      "ĠHel": 4194,
      "ĠNight": 4195,
      "Ġdeliver": 4196,
      "style": 4197,
      "Ġword": 4198,
      "ĠPhilipp": 4199,
      "Ġexecutive": 4200,
      "ĠAlbert": 4201,
      "aily": 4202,
      "99": 4203,
      "ograp": 4204,
      "ĠGovernor": 4205,
      "ĠLab": 4206,
      "Ġinstr": 4207,
      "Ġver": 4208,
      "Ġhot": 4209,
      "ĠBal": 4210,
      "enty": 4211,
      "ĠGirl": 4212,
      "Ġhum": 4213,
      "Ġprojects": 4214,
      "From": 4215,
      "Ġcomment": 4216,
      "Ġplans": 4217,
      "Ġsoft": 4218,
      "Gen": 4219,
      "Ph": 4220,
      "ĠHong": 4221,
      "ervation": 4222,
      "Ġfellow": 4223,
      "Ġbring": 4224,
      "struction": 4225,
      "rie": 4226,
      "onto": 4227,
      "Ġdespite": 4228,
      "Ġ1944": 4229,
      "ĠPeople": 4230,
      "aria": 4231,
      "ĠSol": 4232,
      "ĠSenate": 4233,
      "ĠArg": 4234,
      "Se": 4235,
      "Ġpil": 4236,
      "ĠJac": 4237,
      "kins": 4238,
      "Ġwestern": 4239,
      "Ġnames": 4240,
      "Ġlegisl": 4241,
      "Ġ1967": 4242,
      "Ġbelieved": 4243,
      "Ġspecific": 4244,
      "2014": 4245,
      "ĠGame": 4246,
      "Ġnorm": 4247,
      "Ġdise": 4248,
      "Ġforeign": 4249,
      "ĠMajor": 4250,
      "Ġissued": 4251,
      "ify": 4252,
      "Ġforest": 4253,
      "Ġaltern": 4254,
      "Other": 4255,
      "ulpt": 4256,
      "amm": 4257,
      "Ġroom": 4258,
      "Ġbrief": 4259,
      "ĠScotland": 4260,
      "Ġpoor": 4261,
      "Ġmention": 4262,
      "mir": 4263,
      "Ġmem": 4264,
      "Ġmakes": 4265,
      "Ġmiddle": 4266,
      "ĠCro": 4267,
      "riz": 4268,
      "Ġ1920": 4269,
      "Ġface": 4270,
      "Ġextended": 4271,
      "Ġlarger": 4272,
      "war": 4273,
      "ĠChild": 4274,
      "Ġproposed": 4275,
      "ĠNews": 4276,
      "Ġenergy": 4277,
      "Ġorganiz": 4278,
      "ao": 4279,
      "31": 4280,
      "Ġdouble": 4281,
      "Ġstations": 4282,
      "verse": 4283,
      "site": 4284,
      "ĠHead": 4285,
      "ĠÂ£": 4286,
      "ca": 4287,
      "Ġbomb": 4288,
      "ĠMot": 4289,
      "ĠLi": 4290,
      "Col": 4291,
      "get": 4292,
      "Ġmarriage": 4293,
      "Ġrevealed": 4294,
      "Ġtouch": 4295,
      "poration": 4296,
      "ĠOhio": 4297,
      "2011": 4298,
      "Ġestim": 4299,
      "ĠTw": 4300,
      "Ġ180": 4301,
      "ropical": 4302,
      "rate": 4303,
      "Ġmovie": 4304,
      "Ġoperation": 4305,
      "Ġturned": 4306,
      "ĠOb": 4307,
      "ĠShow": 4308,
      "more": 4309,
      "oura": 4310,
      "ĠIllinois": 4311,
      "Ġrecords": 4312,
      "ĠIslam": 4313,
      "ĠEst": 4314,
      "ĠCoast": 4315,
      "ĠRod": 4316,
      "akers": 4317,
      "ĠBroad": 4318,
      "part": 4319,
      "ĠMinistry": 4320,
      "Ġpasseng": 4321,
      "Ġmach": 4322,
      "ĠHospital": 4323,
      "Ġdeep": 4324,
      "Ġlay": 4325,
      "32": 4326,
      "esh": 4327,
      "Ġdiss": 4328,
      "2007": 4329,
      "ĠStan": 4330,
      "ĠSand": 4331,
      "ĠMore": 4332,
      "ilies": 4333,
      "secut": 4334,
      "Ġsusp": 4335,
      "no": 4336,
      "ĠVen": 4337,
      "Ġ35": 4338,
      "ĠSpain": 4339,
      "ĠCr": 4340,
      "Ġalongside": 4341,
      "ounts": 4342,
      "Ġour": 4343,
      "ĠOtt": 4344,
      "Ġinteg": 4345,
      "ĠMu": 4346,
      "thur": 4347,
      "ogue": 4348,
      "Ġalways": 4349,
      "Ġfifth": 4350,
      "Ġstay": 4351,
      "Ġaffect": 4352,
      "uing": 4353,
      "Ġsolo": 4354,
      "ĠBerlin": 4355,
      "Ġcitiz": 4356,
      "ĠGallery": 4357,
      "yer": 4358,
      "ĠMax": 4359,
      "ĠAnton": 4360,
      "Ġasked": 4361,
      "pose": 4362,
      "Ġarrived": 4363,
      "Ġadj": 4364,
      "Ġtoday": 4365,
      "Ġcomposed": 4366,
      "Ġdemon": 4367,
      "ĠSea": 4368,
      "Ã¡n": 4369,
      "illy": 4370,
      "Ġlabel": 4371,
      "ĠKar": 4372,
      "Ġlog": 4373,
      "Ġbr": 4374,
      "88": 4375,
      "inners": 4376,
      "ĠEle": 4377,
      "Ġrequire": 4378,
      "Ġcateg": 4379,
      "ĠMid": 4380,
      "Ġtold": 4381,
      "Ġfederal": 4382,
      "iga": 4383,
      "ĠAvenue": 4384,
      "irmed": 4385,
      "Ġheart": 4386,
      "ĠVan": 4387,
      "ĠJean": 4388,
      "Ġsociety": 4389,
      "ĠPrince": 4390,
      "Ġwinner": 4391,
      "AS": 4392,
      "phia": 4393,
      "Ġaim": 4394,
      "ĠDie": 4395,
      "class": 4396,
      "ĠBritain": 4397,
      "Ġseparate": 4398,
      "Notes": 4399,
      "light": 4400,
      "ockey": 4401,
      "Ġappears": 4402,
      "ĠAk": 4403,
      "Ġbasketball": 4404,
      "ĠKim": 4405,
      "inger": 4406,
      "ĠTy": 4407,
      "Ġ1965": 4408,
      "isters": 4409,
      "zy": 4410,
      "ĠDevelopment": 4411,
      "Ġfirm": 4412,
      "ilding": 4413,
      "Ġdead": 4414,
      "Ġenough": 4415,
      "Ġcultural": 4416,
      "Ġships": 4417,
      "Ġreferred": 4418,
      "ĠGood": 4419,
      "Ġconditions": 4420,
      "phy": 4421,
      "ĠTre": 4422,
      "ĠBlue": 4423,
      "Ġcouncil": 4424,
      "ĠNot": 4425,
      "ried": 4426,
      "ental": 4427,
      "ĠStep": 4428,
      "2013": 4429,
      "asy": 4430,
      "à¤": 4431,
      "95": 4432,
      "ĠTheir": 4433,
      "itted": 4434,
      "Ġleave": 4435,
      "edd": 4436,
      "cean": 4437,
      "Ġspl": 4438,
      "ĠHistor": 4439,
      "Ġresponsible": 4440,
      "ĠPost": 4441,
      "ĠCur": 4442,
      "umed": 4443,
      "reng": 4444,
      "ĠPrime": 4445,
      "Ġwithd": 4446,
      "2015": 4447,
      "ĠPak": 4448,
      "ĠEp": 4449,
      "Ġprogress": 4450,
      "ĠUr": 4451,
      "Ġregional": 4452,
      "Ġlic": 4453,
      "ĠField": 4454,
      "adelphia": 4455,
      "Ġserve": 4456,
      "Ġawards": 4457,
      "illed": 4458,
      "agn": 4459,
      "ĠCard": 4460,
      "Ġbackground": 4461,
      "sky": 4462,
      "Ġimpact": 4463,
      "Ġoil": 4464,
      "yard": 4465,
      "Ġmight": 4466,
      "Ġ1962": 4467,
      "Ġlikely": 4468,
      "ging": 4469,
      "Ġwanted": 4470,
      "When": 4471,
      "Ġinfluence": 4472,
      "48": 4473,
      "orning": 4474,
      "ĠTem": 4475,
      "Ġforms": 4476,
      "Ġmanaged": 4477,
      "eder": 4478,
      "Ġfamous": 4479,
      "ĠFar": 4480,
      "Ġproblems": 4481,
      "Ġsoldiers": 4482,
      "Ġfinally": 4483,
      "Ġvariety": 4484,
      "Ġult": 4485,
      "ips": 4486,
      "illery": 4487,
      "Ġplanned": 4488,
      "hew": 4489,
      "ĠJes": 4490,
      "ĠAssembly": 4491,
      "Ġmechan": 4492,
      "ĠGh": 4493,
      "Ġordered": 4494,
      "Ġsource": 4495,
      "rovers": 4496,
      "ĠBet": 4497,
      "ĠEliz": 4498,
      "ĠRay": 4499,
      "ĠKe": 4500,
      "ĠCy": 4501,
      "Ġbelong": 4502,
      "Ġchap": 4503,
      "Ġshare": 4504,
      "ĠScottish": 4505,
      "Ġant": 4506,
      "reater": 4507,
      "Ġcause": 4508,
      "ĠIf": 4509,
      "Ġpsych": 4510,
      "ĠEnter": 4511,
      "Ġhonor": 4512,
      "onic": 4513,
      "ĠBC": 4514,
      "gu": 4515,
      "Ġhar": 4516,
      "ĠPrize": 4517,
      "Ġhouses": 4518,
      "Ġfeaturing": 4519,
      "aud": 4520,
      "Ġ1963": 4521,
      "2008": 4522,
      "Å¡": 4523,
      "Ġlevels": 4524,
      "ologist": 4525,
      "Ġlives": 4526,
      "RA": 4527,
      "ube": 4528,
      "Ġchem": 4529,
      "2009": 4530,
      "agon": 4531,
      "Ġâ": 4532,
      "Ġhistorical": 4533,
      "ĠDer": 4534,
      "Ġsecurity": 4535,
      "Ġsucceed": 4536,
      "EC": 4537,
      "Ġcandidate": 4538,
      "ĠIran": 4539,
      "Ġpiano": 4540,
      "Ġmuseum": 4541,
      "Ġprovides": 4542,
      "ĠBul": 4543,
      "Ġtechnology": 4544,
      "ouri": 4545,
      "ĠBang": 4546,
      "IS": 4547,
      "Ġstories": 4548,
      "Ġnearly": 4549,
      "isted": 4550,
      "Bl": 4551,
      "Ġbrand": 4552,
      "ĠMiddle": 4553,
      "ellig": 4554,
      "ĠSystem": 4555,
      "Ġcities": 4556,
      "vest": 4557,
      "ĠAsh": 4558,
      "2005": 4559,
      "ansion": 4560,
      "Ġess": 4561,
      "Ġelements": 4562,
      "Biography": 4563,
      "Ġ1943": 4564,
      "ova": 4565,
      "Ġmainly": 4566,
      "atively": 4567,
      "Ġtreatment": 4568,
      "ĠSpecial": 4569,
      "Ġproducts": 4570,
      "ting": 4571,
      "Ġvon": 4572,
      "Ġamb": 4573,
      "Ġexcept": 4574,
      "Ġneighbor": 4575,
      "ĠBern": 4576,
      "Ġtarget": 4577,
      "Back": 4578,
      "Ġassigned": 4579,
      "ĠTay": 4580,
      "ĠLy": 4581,
      "Ġdrug": 4582,
      "weight": 4583,
      "resp": 4584,
      "Ġ1958": 4585,
      "2016": 4586,
      "Ġpeak": 4587,
      "ĠBell": 4588,
      "ĠKent": 4589,
      "Ġrenamed": 4590,
      "spe": 4591,
      "ables": 4592,
      "ĠTownship": 4593,
      "ĠCaptain": 4594,
      "Ġfriends": 4595,
      "ĠUl": 4596,
      "bers": 4597,
      "iat": 4598,
      "ĠHome": 4599,
      "ĠVictoria": 4600,
      "Ġspeed": 4601,
      "Ġrecent": 4602,
      "ĠOpen": 4603,
      "Ġmeaning": 4604,
      "Ġpurs": 4605,
      "ĠFour": 4606,
      "ĠOk": 4607,
      "Ġincreasing": 4608,
      "Ġaddress": 4609,
      "yo": 4610,
      "Ġpath": 4611,
      "Ġlink": 4612,
      "ĠWater": 4613,
      "ĠInt": 4614,
      "Ġpan": 4615,
      "ĠDet": 4616,
      "AA": 4617,
      "ĠWild": 4618,
      "ocal": 4619,
      "Ġreplace": 4620,
      "ĠAre": 4621,
      "ĠGr": 4622,
      "Ġparticipated": 4623,
      "Ind": 4624,
      "Ġpositive": 4625,
      "Ġyouth": 4626,
      "Ġgreen": 4627,
      "Ġdirectly": 4628,
      "ĠJournal": 4629,
      "Ġofficers": 4630,
      "ker": 4631,
      "ĠLatin": 4632,
      "ĠJoe": 4633,
      "Ġjun": 4634,
      "ression": 4635,
      "ĠCE": 4636,
      "ĠPhiladelphia": 4637,
      "ĠOx": 4638,
      "Ġfoot": 4639,
      "ctors": 4640,
      "ĠHistory": 4641,
      "ricket": 4642,
      "Ġconducted": 4643,
      "Ġinitial": 4644,
      "ĠSpe": 4645,
      "ji": 4646,
      "aped": 4647,
      "Ġalbums": 4648,
      "Ġvan": 4649,
      "eller": 4650,
      "Ġ1941": 4651,
      "Ġelectric": 4652,
      "ĠSat": 4653,
      "icted": 4654,
      "enge": 4655,
      "gypt": 4656,
      "Ġcounter": 4657,
      "Ġmerg": 4658,
      "Ġnearby": 4659,
      "ancy": 4660,
      "ĠCamb": 4661,
      "ĠCop": 4662,
      "Ġofficially": 4663,
      "Ġcontinue": 4664,
      "Ġwhether": 4665,
      "Ġnature": 4666,
      "Ġconsists": 4667,
      "TC": 4668,
      "onia": 4669,
      "Ġeth": 4670,
      "ĠJersey": 4671,
      "Ġnecess": 4672,
      "2006": 4673,
      "Ġ80": 4674,
      "Ġcapac": 4675,
      "Ġcovered": 4676,
      "Ġinjury": 4677,
      "ĠTop": 4678,
      "ami": 4679,
      "enes": 4680,
      "force": 4681,
      "oration": 4682,
      "ĠFollowing": 4683,
      "Ġepisodes": 4684,
      "Awards": 4685,
      "Ġdistin": 4686,
      "ĠWall": 4687,
      "ĠChris": 4688,
      "ĠAndrew": 4689,
      "rolled": 4690,
      "undred": 4691,
      "Ġeffects": 4692,
      "ĠKenn": 4693,
      "obile": 4694,
      "ighter": 4695,
      "miss": 4696,
      "ĠMany": 4697,
      "Ġimplement": 4698,
      "Ġyards": 4699,
      "chestra": 4700,
      "ffic": 4701,
      "Ġwhole": 4702,
      "Ġpainting": 4703,
      "Ġletter": 4704,
      "chester": 4705,
      "Ġcaptured": 4706,
      "Ġcard": 4707,
      "Ġdiscovered": 4708,
      "Ġconfl": 4709,
      "2017": 4710,
      "Ġdisplay": 4711,
      "ĠUnivers": 4712,
      "Ġstreet": 4713,
      "ĠToronto": 4714,
      "nam": 4715,
      "Sp": 4716,
      "ĠKen": 4717,
      "ĠAsia": 4718,
      "Ġnewspaper": 4719,
      "Ġremoved": 4720,
      "thing": 4721,
      "ĠMov": 4722,
      "Ġfootballer": 4723,
      "astic": 4724,
      "ĠRepresent": 4725,
      "47": 4726,
      "ĠCat": 4727,
      "Ġpit": 4728,
      "vin": 4729,
      "ĠBab": 4730,
      "ais": 4731,
      "Ġang": 4732,
      "mes": 4733,
      "ĠBrook": 4734,
      "Ġfloor": 4735,
      "present": 4736,
      "rics": 4737,
      "ĠDaniel": 4738,
      "writer": 4739,
      "emy": 4740,
      "ocated": 4741,
      "ii": 4742,
      "2000": 4743,
      "Ġscene": 4744,
      "Ġ70": 4745,
      "ĠLittle": 4746,
      "Ġactivity": 4747,
      "ĠFinal": 4748,
      "Ġdepartment": 4749,
      "65": 4750,
      "Ġwalk": 4751,
      "Ġwa": 4752,
      "ĠĠĊ": 4753,
      "ĠClark": 4754,
      "Ã¸": 4755,
      "ĠIra": 4756,
      "itude": 4757,
      "ctic": 4758,
      "Ġeastern": 4759,
      "wick": 4760,
      "resh": 4761,
      "Ġrate": 4762,
      "Res": 4763,
      "Ã£": 4764,
      "aging": 4765,
      "Ġconsider": 4766,
      "Ġpotential": 4767,
      "Ġtheory": 4768,
      "aven": 4769,
      "ĠAz": 4770,
      "Ġprimarily": 4771,
      "ĠBBC": 4772,
      "Ġautom": 4773,
      "ba": 4774,
      "Ġtrial": 4775,
      "ĠGeorgia": 4776,
      "Ġuns": 4777,
      "Ġreviews": 4778,
      "Ġopport": 4779,
      "Ġrow": 4780,
      "osh": 4781,
      "ĠUSA": 4782,
      "Ġkind": 4783,
      "ĠRel": 4784,
      "Ġnative": 4785,
      "Ġtitled": 4786,
      "achel": 4787,
      "oren": 4788,
      "ributed": 4789,
      "quarters": 4790,
      "ugby": 4791,
      "Ġdyn": 4792,
      "ĠWind": 4793,
      "ĠColumbia": 4794,
      "Ġcaptain": 4795,
      "Ġchampion": 4796,
      "Ġhere": 4797,
      "Ġ1948": 4798,
      "ully": 4799,
      "Ġsculpt": 4800,
      "bo": 4801,
      "rif": 4802,
      "Ġreform": 4803,
      "Ġvoice": 4804,
      "Ġmoving": 4805,
      "Ġefforts": 4806,
      "town": 4807,
      "ĠLt": 4808,
      "una": 4809,
      "ĠStation": 4810,
      "alle": 4811,
      "ennis": 4812,
      "ĠBoy": 4813,
      "peror": 4814,
      "Am": 4815,
      "onom": 4816,
      "heim": 4817,
      "ĠBrad": 4818,
      "ĠCommand": 4819,
      "range": 4820,
      "Ġrecover": 4821,
      "Ġfamilies": 4822,
      "Ġmale": 4823,
      "Ġstrateg": 4824,
      "Ġtable": 4825,
      "Ġcorn": 4826,
      "ĠBa": 4827,
      "2004": 4828,
      "ione": 4829,
      "ĠProfessor": 4830,
      "Ġminister": 4831,
      "Ġintended": 4832,
      "ĠTam": 4833,
      "Ġquickly": 4834,
      "ĠLibrary": 4835,
      "aded": 4836,
      "king": 4837,
      "ĠChap": 4838,
      "Ġconstructed": 4839,
      "2019": 4840,
      "emet": 4841,
      "98": 4842,
      "izes": 4843,
      "itled": 4844,
      "Ġfeel": 4845,
      "By": 4846,
      "ez": 4847,
      "ĠBoth": 4848,
      "Ġinside": 4849,
      "Ġstreng": 4850,
      "Ġtal": 4851,
      "Ġvalue": 4852,
      "omer": 4853,
      "Ġiniti": 4854,
      "orter": 4855,
      "Ġsal": 4856,
      "ĠElizabeth": 4857,
      "ĠJustice": 4858,
      "Ex": 4859,
      "Ġwebsite": 4860,
      "Ġnation": 4861,
      "Ġgrew": 4862,
      "Ġquality": 4863,
      "ĠCorporation": 4864,
      "ĠInfantry": 4865,
      "Ġidea": 4866,
      "ĠLight": 4867,
      "Ġdirection": 4868,
      "het": 4869,
      "Man": 4870,
      "nes": 4871,
      "Ġextra": 4872,
      "2020": 4873,
      "ĠEgypt": 4874,
      "Ġpurchased": 4875,
      "Ġdestroyed": 4876,
      "anks": 4877,
      "ĠMedia": 4878,
      "Ġranked": 4879,
      "Ġpaper": 4880,
      "ĠPoland": 4881,
      "ĠCreek": 4882,
      "Ġolder": 4883,
      "Ġquestion": 4884,
      "Ġborder": 4885,
      "Ġability": 4886,
      "Ġ1946": 4887,
      "ĠLady": 4888,
      "ech": 4889,
      "ga": 4890,
      "Ġweap": 4891,
      "dney": 4892,
      "Ġwords": 4893,
      "ĠSher": 4894,
      "ĠLes": 4895,
      "uled": 4896,
      "ĠRog": 4897,
      "athan": 4898,
      "ĠMir": 4899,
      "ĠAff": 4900,
      "ĠSummer": 4901,
      "ensus": 4902,
      "Ġrespectively": 4903,
      "ĠSant": 4904,
      "icine": 4905,
      "ĠWay": 4906,
      "book": 4907,
      "ĠBattalion": 4908,
      "apers": 4909,
      "Ġtransfer": 4910,
      "MA": 4911,
      "duce": 4912,
      "His": 4913,
      "ava": 4914,
      "78": 4915,
      "etts": 4916,
      "han": 4917,
      "Ġyet": 4918,
      "ĠDespite": 4919,
      "ographer": 4920,
      "Ġchairman": 4921,
      "Ġ1959": 4922,
      "Ġamount": 4923,
      "ĠGuard": 4924,
      "ĠJon": 4925,
      "ĠAren": 4926,
      "ĠPop": 4927,
      "Ġ1956": 4928,
      "Ġbehav": 4929,
      "Ġagreed": 4930,
      "ĠMedal": 4931,
      "stone": 4932,
      "ipality": 4933,
      "Ġ1961": 4934,
      "li": 4935,
      "Ġcontest": 4936,
      "Ġclear": 4937,
      "uer": 4938,
      "Ġbeat": 4939,
      "inity": 4940,
      "ĠBand": 4941,
      "44": 4942,
      "ĠElect": 4943,
      "osa": 4944,
      "Ġchannel": 4945,
      "icient": 4946,
      "Ġonline": 4947,
      "Ġconfirmed": 4948,
      "osoph": 4949,
      "Ġvs": 4950,
      "ek": 4951,
      "76": 4952,
      "Ġnotable": 4953,
      "Ġstars": 4954,
      "Ġmodels": 4955,
      "ĠAh": 4956,
      "Ġcars": 4957,
      "Ġneeded": 4958,
      "Ġconcept": 4959,
      "Ġattention": 4960,
      "Ġbound": 4961,
      "Ġillust": 4962,
      "raine": 4963,
      "Ġsingles": 4964,
      "rical": 4965,
      "Ġtemper": 4966,
      "Ġcomposer": 4967,
      "oto": 4968,
      "da": 4969,
      "Ġcontact": 4970,
      "Ġhighly": 4971,
      "ĠMaster": 4972,
      "greg": 4973,
      "anth": 4974,
      "ĠĊĊ": 4975,
      "Ġscoring": 4976,
      "Ġsn": 4977,
      "Ġapproach": 4978,
      "ĠJeff": 4979,
      "Ġproduce": 4980,
      "ĠÃĹ": 4981,
      "Ġrat": 4982,
      "Ġsuffered": 4983,
      "ĠRio": 4984,
      "Ġdance": 4985,
      "ĠPo": 4986,
      "umber": 4987,
      "Ġbecomes": 4988,
      "ĠFC": 4989,
      "Ġdisp": 4990,
      "Ġ1939": 4991,
      "Ġdomin": 4992,
      "Ġarticle": 4993,
      "ĠLemmon": 4994,
      "Ġbig": 4995,
      "Ġincorpor": 4996,
      "Ġagreement": 4997,
      "Ġreach": 4998,
      "55": 4999,
      "ĠTok": 5000,
      "Ġfavor": 5001,
      "Ġleaders": 5002,
      "fort": 5003,
      "Ġfollows": 5004,
      "Ġforward": 5005,
      "worth": 5006,
      "Ġcomes": 5007,
      "Ġsubs": 5008,
      "ika": 5009,
      "ĠMaria": 5010,
      "Ġfounder": 5011,
      "Ġloan": 5012,
      "VID": 5013,
      "Ġ90": 5014,
      "ĠGro": 5015,
      "Ġstra": 5016,
      "bu": 5017,
      "Ġthink": 5018,
      "Ġdrama": 5019,
      "ĠLim": 5020,
      "ĠThree": 5021,
      "grad": 5022,
      "ĠOfficer": 5023,
      "ĠSquad": 5024,
      "500": 5025,
      "Ġpositions": 5026,
      "Ġdedicated": 5027,
      "2003": 5028,
      "Ġmaintain": 5029,
      "ĠViet": 5030,
      "ĠLew": 5031,
      "ixed": 5032,
      "Ã©e": 5033,
      "Ġcolor": 5034,
      "emic": 5035,
      "ĠRome": 5036,
      "ĠAdd": 5037,
      "Ġsail": 5038,
      "Ġinstitut": 5039,
      "Ð¾": 5040,
      "ronic": 5041,
      "MS": 5042,
      "achus": 5043,
      "Ġacademic": 5044,
      "Ġprominent": 5045,
      "iginal": 5046,
      "Ġbasis": 5047,
      "Ġindividuals": 5048,
      "Ġgrowth": 5049,
      "Ġdigital": 5050,
      "Ġ32": 5051,
      "ĠMP": 5052,
      "ui": 5053,
      "Ġut": 5054,
      "rin": 5055,
      "itage": 5056,
      "akh": 5057,
      "Ġjoint": 5058,
      "ĠDuke": 5059,
      "2018": 5060,
      "ĠBir": 5061,
      "ivity": 5062,
      "FF": 5063,
      "Ġaccomp": 5064,
      "Ġdeclared": 5065,
      "ĠBase": 5066,
      "ĠEarth": 5067,
      "ĠBol": 5068,
      "ĠArm": 5069,
      "Ġowner": 5070,
      "Ġcharge": 5071,
      "Ġmixed": 5072,
      "ĠStadium": 5073,
      "Ġadministration": 5074,
      "inson": 5075,
      "ading": 5076,
      "Ġestate": 5077,
      "Ġattend": 5078,
      "Ġengineer": 5079,
      "Ġimmediately": 5080,
      "ĠCorn": 5081,
      "uts": 5082,
      "Ġgiving": 5083,
      "edom": 5084,
      "Ġlaws": 5085,
      "Ġseats": 5086,
      "Ġresidents": 5087,
      "ĠFederal": 5088,
      "urd": 5089,
      "Ġgained": 5090,
      "ĠEnd": 5091,
      "ĠSports": 5092,
      "CO": 5093,
      "usc": 5094,
      "Ġperformances": 5095,
      "ĠAut": 5096,
      "Ġguns": 5097,
      "hemat": 5098,
      "Ġgr": 5099,
      "ĠOf": 5100,
      "ĠHung": 5101,
      "Ġbad": 5102,
      "Ġcat": 5103,
      "Ġ1947": 5104,
      "bec": 5105,
      "Ġunivers": 5106,
      "Ġly": 5107,
      "100": 5108,
      "Ġ1952": 5109,
      "bro": 5110,
      "ĠNations": 5111,
      "Ġ45": 5112,
      "Ġmax": 5113,
      "Ġgas": 5114,
      "enna": 5115,
      "respond": 5116,
      "Ġcompared": 5117,
      "ething": 5118,
      "Ġfa": 5119,
      "46": 5120,
      "ĠPeak": 5121,
      "ĠMuslim": 5122,
      "Ġoccurred": 5123,
      "ĠJunior": 5124,
      "ears": 5125,
      "Ġrule": 5126,
      "Ġequipment": 5127,
      "Ġ1955": 5128,
      "ĠBishop": 5129,
      "Ġsemi": 5130,
      "Ġcapacity": 5131,
      "itness": 5132,
      "ĠIslands": 5133,
      "Ġroles": 5134,
      "Ġrepe": 5135,
      "Ġacting": 5136,
      "96": 5137,
      "ĠSydney": 5138,
      "Ġcerem": 5139,
      "andon": 5140,
      "Ġhosted": 5141,
      "Ġ@": 5142,
      "unte": 5143,
      "ĠTaylor": 5144,
      "Ġconclud": 5145,
      "Ġsens": 5146,
      "ĠWeek": 5147,
      "Ġplaces": 5148,
      "Ġdamage": 5149,
      "ĠIraq": 5150,
      "ĠNetwork": 5151,
      "ĠRou": 5152,
      "amber": 5153,
      "Ġvotes": 5154,
      "vard": 5155,
      "wid": 5156,
      "osen": 5157,
      "aly": 5158,
      "ĠDown": 5159,
      "Ã£o": 5160,
      "According": 5161,
      "ĠAnt": 5162,
      "ito": 5163,
      "eather": 5164,
      "Ġconference": 5165,
      "ĠUt": 5166,
      "aling": 5167,
      "aki": 5168,
      "Ġcancer": 5169,
      "ĠColon": 5170,
      "Ġboy": 5171,
      "ĠMike": 5172,
      "Ġleaves": 5173,
      "SS": 5174,
      "Ġperman": 5175,
      "amin": 5176,
      "Ġupper": 5177,
      "Ġjournalist": 5178,
      "Ġorganized": 5179,
      "Ġphysical": 5180,
      "etting": 5181,
      "Ġstone": 5182,
      "ĠVill": 5183,
      "Ġblue": 5184,
      "Ġsmaller": 5185,
      "Ġexc": 5186,
      "Ġice": 5187,
      "bs": 5188,
      "ĠTod": 5189,
      "istance": 5190,
      "97": 5191,
      "ader": 5192,
      "ĠPen": 5193,
      "igen": 5194,
      "ĠProgram": 5195,
      "Ġcontrovers": 5196,
      "ĠWilson": 5197,
      "hens": 5198,
      "istered": 5199,
      "Ġelim": 5200,
      "ĠBusiness": 5201,
      "achusetts": 5202,
      "Ġstore": 5203,
      "bed": 5204,
      "ĠIndust": 5205,
      "Ġera": 5206,
      "iced": 5207,
      "ĠBrigade": 5208,
      "Ġdark": 5209,
      "uns": 5210,
      "Ġcouple": 5211,
      "Ġlosing": 5212,
      "Don": 5213,
      "Ġcoming": 5214,
      "Ġ1957": 5215,
      "venth": 5216,
      "ĠChristmas": 5217,
      "ĠStr": 5218,
      "Ġaccepted": 5219,
      "aret": 5220,
      "ĠWalk": 5221,
      "Ġcommander": 5222,
      "ĠMarg": 5223,
      "Ġoperating": 5224,
      "ĠCOVID": 5225,
      "ĠLo": 5226,
      "Ġadopted": 5227,
      "ĠColor": 5228,
      "Ġ1949": 5229,
      "urer": 5230,
      "ederation": 5231,
      "Ġsu": 5232,
      "ancing": 5233,
      "anna": 5234,
      "kes": 5235,
      "Ð°": 5236,
      "Ġterritory": 5237,
      "Ġbranch": 5238,
      "Ġnewly": 5239,
      "erc": 5240,
      "Ġthr": 5241,
      "ĠRevolution": 5242,
      "Ġtrains": 5243,
      "ĠHuman": 5244,
      "ronze": 5245,
      "season": 5246,
      "ĠColl": 5247,
      "Ġnucle": 5248,
      "Ġcoal": 5249,
      "Ġparties": 5250,
      "Ġstream": 5251,
      "Co": 5252,
      "ĠIndepend": 5253,
      "Ġdivided": 5254,
      "bra": 5255,
      "Ġnumbers": 5256,
      "Ed": 5257,
      "eman": 5258,
      "Ġsales": 5259,
      "gn": 5260,
      "ĠSom": 5261,
      "ĠAirport": 5262,
      "Ġstrugg": 5263,
      "Ġfacilities": 5264,
      "ĠAtt": 5265,
      "ĠHind": 5266,
      "real": 5267,
      "ishes": 5268,
      "Ġleadership": 5269,
      "lav": 5270,
      "Ġcommittee": 5271,
      "94": 5272,
      "ĠGolden": 5273,
      "dro": 5274,
      "Ġblood": 5275,
      "ĠSupreme": 5276,
      "estic": 5277,
      "ashion": 5278,
      "Ġancient": 5279,
      "One": 5280,
      "Ġretire": 5281,
      "Ġofficials": 5282,
      "Ġfell": 5283,
      "ĠKir": 5284,
      "Ġsources": 5285,
      "Ġpeace": 5286,
      "Film": 5287,
      "Ġdoub": 5288,
      "ĠEconom": 5289,
      "ĠArthur": 5290,
      "Ġexhibition": 5291,
      "ĠJoh": 5292,
      "Ġvot": 5293,
      "Ġtitles": 5294,
      "ĠDavis": 5295,
      "66": 5296,
      "188": 5297,
      "ucky": 5298,
      "ĠArgent": 5299,
      "Ġresulted": 5300,
      "ulty": 5301,
      "2002": 5302,
      "Ġarrested": 5303,
      "imal": 5304,
      "Ġvess": 5305,
      "SP": 5306,
      "Ġcommunities": 5307,
      "width": 5308,
      "Ġnominated": 5309,
      "58": 5310,
      "ules": 5311,
      "lyn": 5312,
      "ĠFair": 5313,
      "Ġcondition": 5314,
      "Background": 5315,
      "Ġconver": 5316,
      "ori": 5317,
      "Ġrecomm": 5318,
      "Ġestimated": 5319,
      "owa": 5320,
      "2001": 5321,
      "perial": 5322,
      "utt": 5323,
      "Ġexpected": 5324,
      "ĠEs": 5325,
      "ĠIndones": 5326,
      "ĠWat": 5327,
      "oral": 5328,
      "Ġpresence": 5329,
      "Ġpet": 5330,
      "Ġdisease": 5331,
      "Ġcontent": 5332,
      "Ġfelt": 5333,
      "Ġcritical": 5334,
      "ensis": 5335,
      "pri": 5336,
      "Ġgraph": 5337,
      "ĠBad": 5338,
      "ĠPower": 5339,
      "Ġproduct": 5340,
      "ĠDec": 5341,
      "rence": 5342,
      "ĠTen": 5343,
      "sey": 5344,
      "Ġconcert": 5345,
      "emetery": 5346,
      "ĠAlso": 5347,
      "Ġbillion": 5348,
      "Ġ1954": 5349,
      "ĠRad": 5350,
      "elle": 5351,
      "Ġwall": 5352,
      "Ġcombined": 5353,
      "ĠDar": 5354,
      "Ġliterature": 5355,
      "erick": 5356,
      "ĠKorea": 5357,
      "Ġspons": 5358,
      "omot": 5359,
      "77": 5360,
      "ĠBridge": 5361,
      "uation": 5362,
      "ĠLeon": 5363,
      "ĠMedical": 5364,
      "Ġpressure": 5365,
      "arent": 5366,
      "Ġmess": 5367,
      "Ġknowledge": 5368,
      "ĠFle": 5369,
      "Ġwidely": 5370,
      "ĠMassachusetts": 5371,
      "Ġsilver": 5372,
      "ĠArena": 5373,
      "ordin": 5374,
      "Ġoffers": 5375,
      "Ġstorm": 5376,
      "Ġanalysis": 5377,
      "Ġexpanded": 5378,
      "Ġflight": 5379,
      "ĠSanta": 5380,
      "Will": 5381,
      "Ġtypes": 5382,
      "bit": 5383,
      "ilton": 5384,
      "Ġhundred": 5385,
      "Ġvac": 5386,
      "oster": 5387,
      "Ġprovince": 5388,
      "ĠAsian": 5389,
      "Ġyounger": 5390,
      "Rec": 5391,
      "AP": 5392,
      "Ġresident": 5393,
      "claim": 5394,
      "Ġidentified": 5395,
      "elligence": 5396,
      "Ġproblem": 5397,
      "Ġlabor": 5398,
      "ĠMoh": 5399,
      "Ġcam": 5400,
      "Ġcolumn": 5401,
      "Ġcampus": 5402,
      "Ġtaught": 5403,
      "ĠQueens": 5404,
      "ĠTurk": 5405,
      "Ġattacks": 5406,
      "Ġreduced": 5407,
      "ĠSav": 5408,
      "Ġlif": 5409,
      "owers": 5410,
      "Ġ36": 5411,
      "Ġburied": 5412,
      "ĠSteve": 5413,
      "ĠLind": 5414,
      "ĠFire": 5415,
      "ĠOlympics": 5416,
      "ervative": 5417,
      "Ġorigin": 5418,
      "ctoral": 5419,
      "bourne": 5420,
      "Be": 5421,
      "ĠMarsh": 5422,
      "Not": 5423,
      "anner": 5424,
      "ĠBarb": 5425,
      "Ġproviding": 5426,
      "Ġfighting": 5427,
      "Ġslow": 5428,
      "ĠLive": 5429,
      "opher": 5430,
      "Ġsexual": 5431,
      "iest": 5432,
      "ĠHor": 5433,
      "ĠPremier": 5434,
      "And": 5435,
      "ĠAnth": 5436,
      "kh": 5437,
      "cles": 5438,
      "Ġcomputer": 5439,
      "Ġserious": 5440,
      "Ġpack": 5441,
      "Ġscholar": 5442,
      "General": 5443,
      "Ġspread": 5444,
      "etherlands": 5445,
      "Ġgranted": 5446,
      "ĠSem": 5447,
      "pass": 5448,
      "Ġ1953": 5449,
      "Ġ1938": 5450,
      "olid": 5451,
      "place": 5452,
      "Ġabandon": 5453,
      "ibly": 5454,
      "ĠTest": 5455,
      "Ġfinish": 5456,
      "Ġcontemporary": 5457,
      "ĠMilitary": 5458,
      "Ġshowed": 5459,
      "enz": 5460,
      "ĠAlf": 5461,
      "Ġrecon": 5462,
      "Ġworkers": 5463,
      "Ġorganizations": 5464,
      "ĠHan": 5465,
      "ĠHay": 5466,
      "Ġdistribution": 5467,
      "ĠHo": 5468,
      "onsin": 5469,
      "Ġopposition": 5470,
      "Ġrecognized": 5471,
      "watch": 5472,
      "Ġpict": 5473,
      "ĠCa": 5474,
      "water": 5475,
      "Ġpun": 5476,
      "Ġparish": 5477,
      "Ġalle": 5478,
      "Ġreports": 5479,
      "Ġpal": 5480,
      "Ġpremier": 5481,
      "ĠSunday": 5482,
      "ĠAnother": 5483,
      "ĠTechnology": 5484,
      "Ġrecently": 5485,
      "Ġresulting": 5486,
      "iate": 5487,
      "Ġbal": 5488,
      "Or": 5489,
      "Ġmarked": 5490,
      "Ġparliament": 5491,
      "Best": 5492,
      "OS": 5493,
      "Ġrules": 5494,
      "ĠAcc": 5495,
      "ĠMissouri": 5496,
      "tra": 5497,
      "Ġinform": 5498,
      "isconsin": 5499,
      "ĠCommon": 5500,
      "ĠBru": 5501,
      "ĠRem": 5502,
      "Ġprep": 5503,
      "ĠPers": 5504,
      "Ġunion": 5505,
      "Ġindustrial": 5506,
      "Ġsecret": 5507,
      "Ġchalleng": 5508,
      "ĠMun": 5509,
      "Ġdistance": 5510,
      "Ne": 5511,
      "itzer": 5512,
      "LA": 5513,
      "ĠTai": 5514,
      "odies": 5515,
      "ĠSon": 5516,
      "Ġtells": 5517,
      "Ġkept": 5518,
      "usion": 5519,
      "Ġbaseball": 5520,
      "49": 5521,
      "Ġbott": 5522,
      "rizona": 5523,
      "Ġgenus": 5524,
      "ĠDesign": 5525,
      "Char": 5526,
      "ĠFox": 5527,
      "tario": 5528,
      "Ġconcent": 5529,
      "Ġwor": 5530,
      "bell": 5531,
      "Ġfestival": 5532,
      "Ġcorrespond": 5533,
      "Cast": 5534,
      "ĠTal": 5535,
      "Ã¼r": 5536,
      "Ġurban": 5537,
      "Ġstre": 5538,
      "We": 5539,
      "Ġclubs": 5540,
      "uate": 5541,
      "Ġrare": 5542,
      "Ġinh": 5543,
      "ĠAdminist": 5544,
      "Ġfigure": 5545,
      "Com": 5546,
      "Te": 5547,
      "ĠDam": 5548,
      "uls": 5549,
      "ĠCastle": 5550,
      "Ġbatt": 5551,
      "ĠWars": 5552,
      "Ġlargely": 5553,
      "Ġprec": 5554,
      "Ġtouchdown": 5555,
      "Ġspot": 5556,
      "Ġauthorities": 5557,
      "Ġbegins": 5558,
      "Ġlin": 5559,
      "Ġbow": 5560,
      "Ġtwice": 5561,
      "01": 5562,
      "Ġelev": 5563,
      "Ġadapt": 5564,
      "No": 5565,
      "ĠVi": 5566,
      "Ġpartner": 5567,
      "Ġmicro": 5568,
      "Ġobtained": 5569,
      "Ġinspired": 5570,
      "ĠSu": 5571,
      "Ġtheme": 5572,
      "Ġvictim": 5573,
      "Ġprobably": 5574,
      "ĠHou": 5575,
      "yes": 5576,
      "US": 5577,
      "ĠRom": 5578,
      "law": 5579,
      "ordon": 5580,
      "Ġtwenty": 5581,
      "Ġpaid": 5582,
      "Ġfast": 5583,
      "olved": 5584,
      "ĠProject": 5585,
      "Ġstock": 5586,
      "Ġsays": 5587,
      "anning": 5588,
      "arts": 5589,
      "Ġteaching": 5590,
      "ĠSus": 5591,
      "Ġpropos": 5592,
      "Ġcoin": 5593,
      "mad": 5594,
      "Ġ500": 5595,
      "olis": 5596,
      "Ġ...": 5597,
      "century": 5598,
      "Ġ1951": 5599,
      "ls": 5600,
      "Ġsuppl": 5601,
      "Ġ1936": 5602,
      "Ġattacked": 5603,
      "Ġthous": 5604,
      "encies": 5605,
      "Ġtherefore": 5606,
      "Ġlaunch": 5607,
      "former": 5608,
      "idae": 5609,
      "Ġflag": 5610,
      "ulate": 5611,
      "Ġformat": 5612,
      "Ð¸": 5613,
      "Ġcreation": 5614,
      "Ġcrim": 5615,
      "Ġarts": 5616,
      "ĠKhan": 5617,
      "iot": 5618,
      "Ġ1937": 5619,
      "ĠDor": 5620,
      "ĠMain": 5621,
      "ocese": 5622,
      "ante": 5623,
      "ographic": 5624,
      "Ġagric": 5625,
      "ĠFrancis": 5626,
      "Ġallowing": 5627,
      "ĠIndiana": 5628,
      "Ġtypically": 5629,
      "ĠOxford": 5630,
      "erb": 5631,
      "lywood": 5632,
      "ĠOrgan": 5633,
      "ĠMember": 5634,
      "ois": 5635,
      "Ġhop": 5636,
      "occer": 5637,
      "Ġreturning": 5638,
      "itter": 5639,
      "Ġfr": 5640,
      "Ġcompeted": 5641,
      "42": 5642,
      "olitan": 5643,
      "ĠEP": 5644,
      "Ġclasses": 5645,
      "hedral": 5646,
      "Ġassociation": 5647,
      "Ġreceive": 5648,
      "ĠConf": 5649,
      "Ġaffili": 5650,
      "Ġcommonly": 5651,
      "Ġmut": 5652,
      "Ġmetal": 5653,
      "anguages": 5654,
      "Born": 5655,
      "aro": 5656,
      "Ġsearch": 5657,
      "Ġsymb": 5658,
      "ĠNaz": 5659,
      "ĠUN": 5660,
      "Ġpromotion": 5661,
      "ennes": 5662,
      "Ġetc": 5663,
      "pa": 5664,
      "Ġtim": 5665,
      "ĠTs": 5666,
      "Ġgain": 5667,
      "Ġ1914": 5668,
      "Ġmotor": 5669,
      "Ġcells": 5670,
      "ĠOntario": 5671,
      "Ġpurpose": 5672,
      "Ġactually": 5673,
      "Ġengineering": 5674,
      "arry": 5675,
      "ĠDiv": 5676,
      "Ġsites": 5677,
      "Ġsuggested": 5678,
      "ĠNetherlands": 5679,
      "Life": 5680,
      "ĠNick": 5681,
      "Ġ1918": 5682,
      "Ġweight": 5683,
      "ĠStock": 5684,
      "Ġthings": 5685,
      "ĠZh": 5686,
      "Ġdrums": 5687,
      "Ġslight": 5688,
      "Ġvocal": 5689,
      "ĠBi": 5690,
      "Ġaired": 5691,
      "Ġcritics": 5692,
      "Ġsituation": 5693,
      "erved": 5694,
      "ĠMinn": 5695,
      "atus": 5696,
      "room": 5697,
      "ĠFI": 5698,
      "Ġformation": 5699,
      "Following": 5700,
      "ĠBeach": 5701,
      "Ġversions": 5702,
      "56": 5703,
      "Ġsixth": 5704,
      "ĠBalt": 5705,
      "Ġwrest": 5706,
      "Ġsupply": 5707,
      "orney": 5708,
      "rator": 5709,
      "ĠKel": 5710,
      "ĠMexican": 5711,
      "Ġsust": 5712,
      "Ġkick": 5713,
      "cow": 5714,
      "Ġgovernor": 5715,
      "ternet": 5716,
      "Ġpattern": 5717,
      "Ġven": 5718,
      "Ġdesignated": 5719,
      "iling": 5720,
      "Ġchosen": 5721,
      "Ġir": 5722,
      "rip": 5723,
      "ĠKitt": 5724,
      "Ġexchange": 5725,
      "Ġtried": 5726,
      "which": 5727,
      "ĠMiller": 5728,
      "ighth": 5729,
      "met": 5730,
      "Ġsafety": 5731,
      "Ġtheatre": 5732,
      "ĠProvince": 5733,
      "ÃŃa": 5734,
      "Ġportray": 5735,
      "Ġclaims": 5736,
      "Ġspirit": 5737,
      "Ġadvanced": 5738,
      "Ġmentioned": 5739,
      "08": 5740,
      "Ġmountain": 5741,
      "ĠGreg": 5742,
      "Ġregiment": 5743,
      "Music": 5744,
      "ĠFellow": 5745,
      "ampton": 5746,
      "Ġaccident": 5747,
      "ĠRang": 5748,
      "ĠNik": 5749,
      "rÃ©": 5750,
      "ĠUkraine": 5751,
      "Ġproceed": 5752,
      "Ġtalk": 5753,
      "ĠEarl": 5754,
      "apore": 5755,
      "Ġprin": 5756,
      "ĠWisconsin": 5757,
      "Ġgoes": 5758,
      "ĠStudies": 5759,
      "Ġgives": 5760,
      "Plot": 5761,
      "Ġearth": 5762,
      "ĠLieutenant": 5763,
      "áĥ": 5764,
      "ĠCas": 5765,
      "ĠSab": 5766,
      "Ġexperiment": 5767,
      "Ġshop": 5768,
      "rell": 5769,
      "Ġfully": 5770,
      "Ġlot": 5771,
      "Ġagent": 5772,
      "Ġsplit": 5773,
      "Ġmom": 5774,
      "ĠRoss": 5775,
      "asty": 5776,
      "Ġvisit": 5777,
      "rowd": 5778,
      "ĠList": 5779,
      "Ġpolitics": 5780,
      "Is": 5781,
      "rec": 5782,
      "93": 5783,
      "ĠStephen": 5784,
      "gar": 5785,
      "pson": 5786,
      "Ġdial": 5787,
      "ager": 5788,
      "rainian": 5789,
      "uri": 5790,
      "ressed": 5791,
      "CAA": 5792,
      "Ġexisting": 5793,
      "Ġathlet": 5794,
      "ĠCub": 5795,
      "Ġsettlement": 5796,
      "ĠPier": 5797,
      "iang": 5798,
      "gers": 5799,
      "Ġ33": 5800,
      "pects": 5801,
      "Ġimmig": 5802,
      "Ġwild": 5803,
      "Ġdipl": 5804,
      "osis": 5805,
      "Ġ)": 5806,
      "ext": 5807,
      "Ġjudge": 5808,
      "Ġfought": 5809,
      "ĠHu": 5810,
      "Ġcomedy": 5811,
      "ĠKansas": 5812,
      "ecause": 5813,
      "Ġimage": 5814,
      "ĠFe": 5815,
      "Ġcab": 5816,
      "VD": 5817,
      "ĠColorado": 5818,
      "ĠTa": 5819,
      "election": 5820,
      "joy": 5821,
      "ĠMas": 5822,
      "imens": 5823,
      "ĠPhilip": 5824,
      "91": 5825,
      "je": 5826,
      "Ġfigures": 5827,
      "oty": 5828,
      "udget": 5829,
      "ĠâĢĺ": 5830,
      "Ġconflict": 5831,
      "ĠCre": 5832,
      "ĠMarc": 5833,
      "Ġsurrounding": 5834,
      "Ġglobal": 5835,
      "Ġdocumentary": 5836,
      "',": 5837,
      "Ġec": 5838,
      "Ġcreating": 5839,
      "ĠSwedish": 5840,
      "ĠCirc": 5841,
      "Ġcannot": 5842,
      "Des": 5843,
      "zech": 5844,
      "agu": 5845,
      "Ġserves": 5846,
      "yal": 5847,
      "AM": 5848,
      "Ġunique": 5849,
      "aska": 5850,
      "Ġcommissioned": 5851,
      "Ġconsum": 5852,
      "Ġaudience": 5853,
      "ĠMcG": 5854,
      "Ġpair": 5855,
      "Ġcontinues": 5856,
      "Ġplants": 5857,
      "ĠShort": 5858,
      "Ãº": 5859,
      "itional": 5860,
      "ĠĠĠ": 5861,
      "Ġple": 5862,
      "Reception": 5863,
      "06": 5864,
      "Ġcounty": 5865,
      "Ġcustom": 5866,
      "aph": 5867,
      "Ġneighborhood": 5868,
      "esota": 5869,
      "Ġ1929": 5870,
      "ĠAtlantic": 5871,
      "gg": 5872,
      "Ġadvert": 5873,
      "Ġhands": 5874,
      "ĠBurn": 5875,
      "ĠGre": 5876,
      "Ġsuit": 5877,
      "Ġfacility": 5878,
      "ĠArizona": 5879,
      "ĠKr": 5880,
      "Ġallows": 5881,
      "Ġ1928": 5882,
      "Ġtrue": 5883,
      "ĠSimon": 5884,
      "Ġspring": 5885,
      "ĠLtd": 5886,
      "ĠBrother": 5887,
      "Ġbought": 5888,
      "ĠBon": 5889,
      "ĠCommunity": 5890,
      "iform": 5891,
      "Ġdropped": 5892,
      "Ġrisk": 5893,
      "Ġinstrument": 5894,
      "Ġwins": 5895,
      "Ġheav": 5896,
      "92": 5897,
      "Ġnotes": 5898,
      "aga": 5899,
      "Ġlibrary": 5900,
      "Ġcompon": 5901,
      "Ġguest": 5902,
      "41": 5903,
      "ĠSquadron": 5904,
      "ĠPit": 5905,
      "ĠIV": 5906,
      "uge": 5907,
      "Ġapplied": 5908,
      "ĠMic": 5909,
      "Ġqualified": 5910,
      "mouth": 5911,
      "ĠForm": 5912,
      "ns": 5913,
      "Ġscheduled": 5914,
      "Ġhorse": 5915,
      "ĠSciences": 5916,
      "Ġguard": 5917,
      "ĠBelg": 5918,
      "Ðµ": 5919,
      "ĠTrust": 5920,
      "nic": 5921,
      "ĠMaryland": 5922,
      "po": 5923,
      "irds": 5924,
      "Ġfish": 5925,
      "ĠKal": 5926,
      "Ġcarri": 5927,
      "Ġending": 5928,
      "ĠBall": 5929,
      "Ġ1932": 5930,
      "isa": 5931,
      "idi": 5932,
      "ffcc": 5933,
      "Ġsoftware": 5934,
      "Ġvehicle": 5935,
      "ĠDisney": 5936,
      "ĠJews": 5937,
      "La": 5938,
      "ĠHart": 5939,
      "Ġstraight": 5940,
      "Ġbatter": 5941,
      "iny": 5942,
      "Ġmill": 5943,
      "pool": 5944,
      "iti": 5945,
      "Ġtraffic": 5946,
      "1999": 5947,
      "Ġburn": 5948,
      "Ġunable": 5949,
      "ĠHarry": 5950,
      "Ġadvance": 5951,
      "alo": 5952,
      "inder": 5953,
      "Ä±": 5954,
      "Ġmaterials": 5955,
      "pet": 5956,
      "ĠJane": 5957,
      "lers": 5958,
      "ĠAllen": 5959,
      "oli": 5960,
      "ĠId": 5961,
      "Ġgreater": 5962,
      "Ġdefense": 5963,
      "May": 5964,
      "ĠWel": 5965,
      "organ": 5966,
      "iser": 5967,
      "Ġhousing": 5968,
      "ĠNic": 5969,
      "ĠAbb": 5970,
      "oly": 5971,
      "ads": 5972,
      "Ġreceiving": 5973,
      "ructure": 5974,
      "05": 5975,
      "Ġeas": 5976,
      "Ġmeant": 5977,
      "Ġvehicles": 5978,
      "Ġherself": 5979,
      "IC": 5980,
      "ĠDoctor": 5981,
      "ĠAffairs": 5982,
      "cont": 5983,
      "Ġce": 5984,
      "Ġfaced": 5985,
      "agh": 5986,
      "ĠSecurity": 5987,
      "ER": 5988,
      "Ġtower": 5989,
      "iques": 5990,
      "Ġsomething": 5991,
      "point": 5992,
      "ĠLewis": 5993,
      "ionally": 5994,
      "ĠBudd": 5995,
      "Ġ38": 5996,
      "inus": 5997,
      "Ġoppos": 5998,
      "ĠCommun": 5999,
      "Ġunknown": 6000,
      "asion": 6001,
      "ĠFront": 6002,
      "ĠÄ": 6003,
      "Disc": 6004,
      "mph": 6005,
      "Ġsets": 6006,
      "Ġprotest": 6007,
      "Ġfocused": 6008,
      "Ġsides": 6009,
      "inth": 6010,
      "68": 6011,
      "Ġattempts": 6012,
      "chers": 6013,
      "leep": 6014,
      "olas": 6015,
      "achelor": 6016,
      "Ġpublication": 6017,
      "Ġconnected": 6018,
      "Ġregions": 6019,
      "Ġattempted": 6020,
      "outheast": 6021,
      "ĠServices": 6022,
      "uese": 6023,
      "Ġpiece": 6024,
      "IN": 6025,
      "iments": 6026,
      "wing": 6027,
      "ĠCountry": 6028,
      "Ġactions": 6029,
      "Track": 6030,
      "Ġsons": 6031,
      "Ġconsisted": 6032,
      "zen": 6033,
      "Ġprof": 6034,
      "Ġcrime": 6035,
      "urance": 6036,
      "raf": 6037,
      "Ġsport": 6038,
      "ĠAthlet": 6039,
      "Ġ1935": 6040,
      "Ġrear": 6041,
      "ĠNFL": 6042,
      "car": 6043,
      "aks": 6044,
      "Ġinvestigation": 6045,
      "ipe": 6046,
      "orph": 6047,
      "ĠSingapore": 6048,
      "ĠSpacewatch": 6049,
      "eria": 6050,
      "Ġ1919": 6051,
      "ĠSquare": 6052,
      "Ġsecondary": 6053,
      "Ġinjured": 6054,
      "anga": 6055,
      "ĠMit": 6056,
      "ĠDrag": 6057,
      "ĠNich": 6058,
      "Ġrespond": 6059,
      "ĠConne": 6060,
      "orge": 6061,
      "Ġ1910": 6062,
      "Ġx": 6063,
      "ĠMemorial": 6064,
      "Ġsynonym": 6065,
      "Ġbrothers": 6066,
      "Ġcompletely": 6067,
      "ĠSix": 6068,
      "uous": 6069,
      "Ġgrowing": 6070,
      "57": 6071,
      "Ġcontain": 6072,
      "ĠEntertainment": 6073,
      "Ġheadquarters": 6074,
      "Ġfans": 6075,
      "lines": 6076,
      "ifications": 6077,
      "offs": 6078,
      "Ġmorning": 6079,
      "Since": 6080,
      "actions": 6081,
      "ĠMand": 6082,
      "ĠFord": 6083,
      "ĠTurn": 6084,
      "ĠForest": 6085,
      "Ġshell": 6086,
      "wegian": 6087,
      "Ġrein": 6088,
      "El": 6089,
      "rait": 6090,
      "ĠWolf": 6091,
      "Ġconsult": 6092,
      "Ġlett": 6093,
      "illing": 6094,
      "ĠRen": 6095,
      "Ġfounding": 6096,
      "glas": 6097,
      "ortheast": 6098,
      "Ġconsecut": 6099,
      "coln": 6100,
      "Ġachieved": 6101,
      "oes": 6102,
      "Fran": 6103,
      "ĠPakistan": 6104,
      "iders": 6105,
      "istant": 6106,
      "Ġbroke": 6107,
      "Ġnarrow": 6108,
      "ĠManagement": 6109,
      "everal": 6110,
      "Ġinstall": 6111,
      "ĠEngineering": 6112,
      "elve": 6113,
      "Ġ1917": 6114,
      "Ġrefused": 6115,
      "ruit": 6116,
      "gal": 6117,
      "long": 6118,
      "ĠHard": 6119,
      "Ġsuggest": 6120,
      "ĠBuilding": 6121,
      "run": 6122,
      "ĠRoy": 6123,
      "Ġtrust": 6124,
      "Ġlanguages": 6125,
      "Ġentitled": 6126,
      "Ġtree": 6127,
      "Ġrural": 6128,
      "Ġ1933": 6129,
      "ĠTransport": 6130,
      "ĠMoscow": 6131,
      "ĠPhilippines": 6132,
      "rog": 6133,
      "Ġhistoric": 6134,
      "gment": 6135,
      "Ġlisting": 6136,
      "Ġflood": 6137,
      "ĠHoward": 6138,
      "uh": 6139,
      "Ġwear": 6140,
      "Ġrapid": 6141,
      "Ġapproved": 6142,
      "Ġfeet": 6143,
      "Ġarchitecture": 6144,
      "ĠKorean": 6145,
      "Ġwinners": 6146,
      "Ġ+": 6147,
      "ĠTony": 6148,
      "ĠForeign": 6149,
      "Ġarms": 6150,
      "oles": 6151,
      "Ġnegot": 6152,
      "Ġsucceeded": 6153,
      "Ġdrive": 6154,
      "Ġmiles": 6155,
      "Ġmethods": 6156,
      "Ġcert": 6157,
      "ĠSurvey": 6158,
      "Ġ1900": 6159,
      "'.": 6160,
      "07": 6161,
      "cha": 6162,
      "Ġfair": 6163,
      "ĠStaff": 6164,
      "Ġracing": 6165,
      "ĠUs": 6166,
      "evin": 6167,
      "Ġhistorian": 6168,
      "Ġhall": 6169,
      "iversary": 6170,
      "Ġultimately": 6171,
      "43": 6172,
      "ĠUkrainian": 6173,
      "ĠExecutive": 6174,
      "ented": 6175,
      "Ġcho": 6176,
      "Ġshortly": 6177,
      "ĠFree": 6178,
      "bi": 6179,
      "umes": 6180,
      "stitu": 6181,
      "Ġformerly": 6182,
      "Ġincident": 6183,
      "uccess": 6184,
      "ĠGil": 6185,
      "While": 6186,
      "ES": 6187,
      "Ġseem": 6188,
      "Ġretirement": 6189,
      "jo": 6190,
      "ĠAbd": 6191,
      "ĠCab": 6192,
      "Ġarticles": 6193,
      "Ġrestaur": 6194,
      "Ġnecessary": 6195,
      "Ġthir": 6196,
      "iller": 6197,
      "Ġmeasure": 6198,
      "ĠLabor": 6199,
      "Ġ1912": 6200,
      "Ġ(),": 6201,
      "Ġcopies": 6202,
      "ĠTelevision": 6203,
      "Ġholds": 6204,
      "ropolitan": 6205,
      "Ġsubsequent": 6206,
      "Ġstarring": 6207,
      "ĠWeb": 6208,
      "Ġattra": 6209,
      "ivals": 6210,
      "ĠVice": 6211,
      "Ġroll": 6212,
      "ĠSpring": 6213,
      "Ġprotection": 6214,
      "adi": 6215,
      "Ġgeneration": 6216,
      "Ġexclus": 6217,
      "STM": 6218,
      "Ġovers": 6219,
      "uties": 6220,
      "William": 6221,
      "Ġmayor": 6222,
      "Ġmusician": 6223,
      "Ġidentity": 6224,
      "Ġbul": 6225,
      "Ġkilling": 6226,
      "osophy": 6227,
      "Ġ39": 6228,
      "aming": 6229,
      "sex": 6230,
      "Ġ1934": 6231,
      "Ġreject": 6232,
      "1998": 6233,
      "Ġdraft": 6234,
      "zo": 6235,
      "Ġprepar": 6236,
      "ĠMinnesota": 6237,
      "Ġexpansion": 6238,
      "Ap": 6239,
      "ĠOd": 6240,
      "Ġeffective": 6241,
      "ĠNa": 6242,
      "ĠTokyo": 6243,
      "Ġcart": 6244,
      "Ġcontributed": 6245,
      "Ġrecognition": 6246,
      "inguished": 6247,
      "outs": 6248,
      "Ġperforming": 6249,
      "Ġauthority": 6250,
      "ĠMountain": 6251,
      "Ġsay": 6252,
      "erald": 6253,
      "Ġviolence": 6254,
      "fall": 6255,
      "incial": 6256,
      "lah": 6257,
      "ĠGi": 6258,
      "Ġoppon": 6259,
      "Ġcandidates": 6260,
      "Dem": 6261,
      "ĠCzech": 6262,
      "miral": 6263,
      "Ġlect": 6264,
      "weet": 6265,
      "set": 6266,
      "ordan": 6267,
      "Ġpaintings": 6268,
      "intend": 6269,
      "Ġscientific": 6270,
      "09": 6271,
      "ĠRa": 6272,
      "Ġroof": 6273,
      "ikh": 6274,
      "vi": 6275,
      "Ġsurvey": 6276,
      "keep": 6277,
      "Ġconsecutive": 6278,
      "Ġsquare": 6279,
      "ĠJacob": 6280,
      "Ġmemory": 6281,
      "ĠDu": 6282,
      "Ġvent": 6283,
      "Ġbill": 6284,
      "Ġresear": 6285,
      "ĠNap": 6286,
      "Ġunderst": 6287,
      "Ġmaximum": 6288,
      "Ġmarg": 6289,
      "Ġstating": 6290,
      "ĠGree": 6291,
      "rum": 6292,
      "Ġ1922": 6293,
      "escription": 6294,
      "Ġinstitutions": 6295,
      "Ġraces": 6296,
      "67": 6297,
      "iami": 6298,
      "ĠRegional": 6299,
      "ĠHoly": 6300,
      "finals": 6301,
      "life": 6302,
      "erry": 6303,
      "ĠNow": 6304,
      "ĠOcean": 6305,
      "ifically": 6306,
      "asters": 6307,
      "Ġ34": 6308,
      "Ġrain": 6309,
      "1990": 6310,
      "ĠHur": 6311,
      "while": 6312,
      "Ġwing": 6313,
      "Ġpieces": 6314,
      "ĠEmperor": 6315,
      "Ġdecor": 6316,
      "Ġprint": 6317,
      "Ġprincipal": 6318,
      "ĠRet": 6319,
      "Ġrelations": 6320,
      "Ġhor": 6321,
      "ĠRose": 6322,
      "Ġcombat": 6323,
      "TA": 6324,
      "Work": 6325,
      "Ġinvited": 6326,
      "oured": 6327,
      "ĠJay": 6328,
      "Ġvisited": 6329,
      "Ġonto": 6330,
      "uses": 6331,
      "ĠFamily": 6332,
      "Ġlocations": 6333,
      "icy": 6334,
      "Ġdaily": 6335,
      "under": 6336,
      "ĠPass": 6337,
      "International": 6338,
      "ĠStone": 6339,
      "Ġspect": 6340,
      "Ġenjoy": 6341,
      "IA": 6342,
      "ĠGordon": 6343,
      "Ġentrance": 6344,
      "Ġdefined": 6345,
      "ĠMrs": 6346,
      "ĠMelbourne": 6347,
      "ĠEach": 6348,
      "cluding": 6349,
      "Ġbegin": 6350,
      "Ġlyrics": 6351,
      "ĠForces": 6352,
      "Ġalleged": 6353,
      "uther": 6354,
      "Ġmagn": 6355,
      "Ġdog": 6356,
      "Ġcas": 6357,
      "Ġheight": 6358,
      "ĠCambridge": 6359,
      "ĠOt": 6360,
      "Ġvillages": 6361,
      "ĠNiger": 6362,
      "ĠWalter": 6363,
      "allery": 6364,
      "aints": 6365,
      "Ġdismiss": 6366,
      "Ġmachine": 6367,
      "ĠLat": 6368,
      "Ġvisual": 6369,
      "Ġmatter": 6370,
      "64": 6371,
      "Ġresc": 6372,
      "Ġsupporting": 6373,
      "Ġstatistics": 6374,
      "Ġprotein": 6375,
      "Ġpartnership": 6376,
      "Ġexecut": 6377,
      "Ġfinds": 6378,
      "Ġresources": 6379,
      "Ġwinter": 6380,
      "Ġencoura": 6381,
      "Ġtemple": 6382,
      "ĠBillboard": 6383,
      "Ġbey": 6384,
      "oen": 6385,
      "Ġanimals": 6386,
      "Ġclimate": 6387,
      "Ġsetting": 6388,
      "andy": 6389,
      "ques": 6390,
      "ĠPortuguese": 6391,
      "ĠJam": 6392,
      "ĠGab": 6393,
      "Ġmunicipal": 6394,
      "ĠPrinc": 6395,
      "efe": 6396,
      "ĠNorwegian": 6397,
      "Ġarrang": 6398,
      "Ġpainter": 6399,
      "ĠTan": 6400,
      "Ġlocomot": 6401,
      "Ġenvironmental": 6402,
      "ĠPoint": 6403,
      "Ġ37": 6404,
      "ĠLincoln": 6405,
      "Ġpermanent": 6406,
      "ĠHouston": 6407,
      "Ġsimply": 6408,
      "Ġsettled": 6409,
      "Ġcycl": 6410,
      "1997": 6411,
      "Ġportion": 6412,
      "Ġshared": 6413,
      "Ġpraised": 6414,
      "ĠAlb": 6415,
      "ĠChannel": 6416,
      "roit": 6417,
      "Ġ75": 6418,
      "ingham": 6419,
      "ĠSenior": 6420,
      "ĠPrix": 6421,
      "Ġdefin": 6422,
      "Ġrom": 6423,
      "Ġends": 6424,
      "ĠReal": 6425,
      "ĠFame": 6426,
      "Ġmerch": 6427,
      "Ġbeyond": 6428,
      "Ġstrike": 6429,
      "bar": 6430,
      "Ġmis": 6431,
      "Ġapplication": 6432,
      "ĠSound": 6433,
      "Ġsolid": 6434,
      "Ġfunding": 6435,
      "Ġdetermined": 6436,
      "Ġfrequently": 6437,
      "Ġconverted": 6438,
      "wise": 6439,
      "idge": 6440,
      "Jan": 6441,
      "Ġavoid": 6442,
      "To": 6443,
      "ho": 6444,
      "2021": 6445,
      "ĠSilver": 6446,
      "vo": 6447,
      "Ġconvers": 6448,
      "ello": 6449,
      "Ġemployees": 6450,
      "Ġlearning": 6451,
      "ĠHun": 6452,
      "inch": 6453,
      "Ġhabit": 6454,
      "En": 6455,
      "Ġ1916": 6456,
      "ĠSweden": 6457,
      "ĠHonor": 6458,
      "Ġreference": 6459,
      "ĠWrit": 6460,
      "ĠHarris": 6461,
      "Ġselection": 6462,
      "ĠSingh": 6463,
      "ĠDun": 6464,
      "Ġtechnical": 6465,
      "Ġbrig": 6466,
      "Ġvice": 6467,
      "Ġresigned": 6468,
      "Ġentry": 6469,
      "ĠCost": 6470,
      "ĠExpress": 6471,
      "Ġexpressed": 6472,
      "Hon": 6473,
      "eding": 6474,
      "Ġfunds": 6475,
      "Ġreasons": 6476,
      "ĠLam": 6477,
      "risis": 6478,
      "anes": 6479,
      "Ġharm": 6480,
      "igation": 6481,
      "ardo": 6482,
      "ĠDall": 6483,
      "Ġdeploy": 6484,
      "fully": 6485,
      "arp": 6486,
      "ĠBah": 6487,
      "ĠKl": 6488,
      "ĠSerb": 6489,
      "Reg": 6490,
      "olo": 6491,
      "urrent": 6492,
      "ĠRon": 6493,
      "ibb": 6494,
      "ĠVietnam": 6495,
      "prise": 6496,
      "Ġbra": 6497,
      "Ġrelatively": 6498,
      "Ġpersonnel": 6499,
      "after": 6500,
      "Ġsense": 6501,
      "Ġhired": 6502,
      "ĠDream": 6503,
      "BI": 6504,
      "Ġ178": 6505,
      "Ġpilot": 6506,
      "ateur": 6507,
      "Ġgirls": 6508,
      "Ġfleet": 6509,
      "western": 6510,
      "ĠKy": 6511,
      "ĠKat": 6512,
      "Ġdoctor": 6513,
      "oviÄĩ": 6514,
      "ĠArmen": 6515,
      "Ġdeveloping": 6516,
      "Ġmunicipality": 6517,
      "HL": 6518,
      "Ġhero": 6519,
      "also": 6520,
      "ĠReview": 6521,
      "ĠAustria": 6522,
      "Ġfailure": 6523,
      "Ġstructures": 6524,
      "come": 6525,
      "ĠÎ": 6526,
      "ĠAud": 6527,
      "ĠFrederick": 6528,
      "ĠHal": 6529,
      "Ġ1924": 6530,
      "phas": 6531,
      "Ġsuccessfully": 6532,
      "Ġgovern": 6533,
      "Ġ1931": 6534,
      "Ġcriminal": 6535,
      "ĠBeng": 6536,
      "ĠBat": 6537,
      "Ġacts": 6538,
      "Ġholding": 6539,
      "ĠChildren": 6540,
      "Ġopposed": 6541,
      "ĠDur": 6542,
      "Ġoldest": 6543,
      "Ġreserve": 6544,
      "Ġliterary": 6545,
      "1996": 6546,
      "1995": 6547,
      "Ġprogramming": 6548,
      "Ġdecre": 6549,
      "eline": 6550,
      "ĠAdam": 6551,
      "Ġ1925": 6552,
      "Pr": 6553,
      "Ġ1927": 6554,
      "ĠRun": 6555,
      "ĠIslamic": 6556,
      "54": 6557,
      "ĠWhit": 6558,
      "vant": 6559,
      "Ġyour": 6560,
      "ĠPict": 6561,
      "Ġneeds": 6562,
      "ĠLegisl": 6563,
      "iva": 6564,
      "ĠMagazine": 6565,
      "ĠDeputy": 6566,
      "Ġfashion": 6567,
      "friend": 6568,
      "PA": 6569,
      "equ": 6570,
      "ĠDick": 6571,
      "Ġsimple": 6572,
      "ĠLas": 6573,
      "edia": 6574,
      "Ġ1926": 6575,
      "ĠAnderson": 6576,
      "night": 6577,
      "ãĥ": 6578,
      "ĠLow": 6579,
      "Ġappoint": 6580,
      "Ġgar": 6581,
      "oven": 6582,
      "enny": 6583,
      "Ġnormal": 6584,
      "PS": 6585,
      "Ġcategory": 6586,
      "Ġwalls": 6587,
      "ĠBrand": 6588,
      "Ġslightly": 6589,
      "can": 6590,
      "ĠIowa": 6591,
      "Ġdetect": 6592,
      "ĠCape": 6593,
      "Ġlake": 6594,
      "03": 6595,
      "53": 6596,
      "Ġtropical": 6597,
      "Ġroyal": 6598,
      "Ġbacking": 6599,
      "Ġfinishing": 6600,
      "04": 6601,
      "Ġcorner": 6602,
      "Ġlies": 6603,
      "Ġrob": 6604,
      "Ġincome": 6605,
      "Ġways": 6606,
      "chell": 6607,
      "Ġdomestic": 6608,
      "ĠNaval": 6609,
      "Ġmind": 6610,
      "Ġnob": 6611,
      "Cont": 6612,
      "ĠSum": 6613,
      "ĠAmb": 6614,
      "ĠPlan": 6615,
      "ĠDouglas": 6616,
      "Ġcitizens": 6617,
      "Ã¢": 6618,
      "ensity": 6619,
      "Ġadvant": 6620,
      "bach": 6621,
      "ĠNorway": 6622,
      "Ġwarn": 6623,
      "Ġscenes": 6624,
      "ilation": 6625,
      "Ġaccompan": 6626,
      "\"),": 6627,
      "Ġbronze": 6628,
      "ĠFederation": 6629,
      "anger": 6630,
      "oyd": 6631,
      "Ġtor": 6632,
      "72": 6633,
      "ĠPot": 6634,
      "Ġiron": 6635,
      "Ġcompar": 6636,
      "Äĥ": 6637,
      "Ġshape": 6638,
      "Ġwrite": 6639,
      "Ã³w": 6640,
      "Ġrot": 6641,
      "Ġtask": 6642,
      "Ġyellow": 6643,
      "Ġdiplom": 6644,
      "ĠBack": 6645,
      "ĠTurkey": 6646,
      "ocked": 6647,
      "ĠModern": 6648,
      "Ġjunior": 6649,
      "appe": 6650,
      "Ġimpl": 6651,
      "Ġplanning": 6652,
      "Ġwealth": 6653,
      "ĠSin": 6654,
      "ĠCommander": 6655,
      "ĠPrim": 6656,
      "Ġpowerful": 6657,
      "ĠAli": 6658,
      "ĠAmericans": 6659,
      "enh": 6660,
      "ĠTurkish": 6661,
      "ennessee": 6662,
      "Ġconnection": 6663,
      "Ġjazz": 6664,
      "lad": 6665,
      "Ġinstru": 6666,
      "Ð½": 6667,
      "uration": 6668,
      "veland": 6669,
      "Ġpremiered": 6670,
      "ĠFund": 6671,
      "Äį": 6672,
      "Ġfresh": 6673,
      "Ġsan": 6674,
      "olished": 6675,
      "Ġceremony": 6676,
      "uma": 6677,
      "rations": 6678,
      "Ġemployed": 6679,
      "jan": 6680,
      "Â½": 6681,
      "SR": 6682,
      "ĠManchester": 6683,
      "Ġcharts": 6684,
      "ĠKam": 6685,
      "Ġvirt": 6686,
      "ĠLabour": 6687,
      "ÅĦ": 6688,
      "Ġfranch": 6689,
      "ĠNCAA": 6690,
      "Ġworldwide": 6691,
      "box": 6692,
      "Ġelement": 6693,
      "Ġ1915": 6694,
      "stead": 6695,
      "Ġliber": 6696,
      "imore": 6697,
      "rows": 6698,
      "ricts": 6699,
      "Ġeconomy": 6700,
      "ĠAntonio": 6701,
      "ourse": 6702,
      "Ġregarding": 6703,
      "ĠBos": 6704,
      "awn": 6705,
      "hing": 6706,
      "Ġdriver": 6707,
      "Ġspeech": 6708,
      "Ġfields": 6709,
      "ĠMoore": 6710,
      "Ġpassenger": 6711,
      "51": 6712,
      "stream": 6713,
      "lahoma": 6714,
      "AF": 6715,
      "di": 6716,
      "sis": 6717,
      "Ġ1921": 6718,
      "regon": 6719,
      "ĠBry": 6720,
      "Ġoffices": 6721,
      "ĠPatrick": 6722,
      "Ġshall": 6723,
      "Ġtrees": 6724,
      "Ġdoing": 6725,
      "Ġoccupied": 6726,
      "gor": 6727,
      "79": 6728,
      "Ġstrength": 6729,
      "Ġtry": 6730,
      "Ġvoted": 6731,
      "Ġhousehold": 6732,
      "uv": 6733,
      "scape": 6734,
      "Ġweapons": 6735,
      "ĠNBA": 6736,
      "ĠPlayer": 6737,
      "Ġwatch": 6738,
      "zer": 6739,
      "agan": 6740,
      "inema": 6741,
      "Ġmand": 6742,
      "Her": 6743,
      "Å«": 6744,
      "Ġlaid": 6745,
      "Ġscript": 6746,
      "ĠAmong": 6747,
      "apes": 6748,
      "ĠChampions": 6749,
      "Ġletters": 6750,
      "redited": 6751,
      "SI": 6752,
      "52": 6753,
      "Ġtrav": 6754,
      "ĠPrin": 6755,
      "Ġtowns": 6756,
      "Ġpatients": 6757,
      "Notable": 6758,
      "aza": 6759,
      "Ġhyp": 6760,
      "Ġenemy": 6761,
      "Ġrough": 6762,
      "Ġdefend": 6763,
      "ymn": 6764,
      "father": 6765,
      "Ġprotect": 6766,
      "ĠBarn": 6767,
      "ĠNev": 6768,
      "rik": 6769,
      "ĠDomin": 6770,
      "ocation": 6771,
      "ÃŁ": 6772,
      "Ġlit": 6773,
      "Ġaged": 6774,
      "Ġinstalled": 6775,
      "zh": 6776,
      "erts": 6777,
      "ĠIl": 6778,
      "Ġsought": 6779,
      "ĠHug": 6780,
      "Ġdeleg": 6781,
      "Ġcenturies": 6782,
      "ĠMiami": 6783,
      "ĠRoute": 6784,
      "Description": 6785,
      "Ġimprove": 6786,
      "Ġsac": 6787,
      "Ġ300": 6788,
      "Ġbudget": 6789,
      "clusion": 6790,
      "ĠQueensland": 6791,
      "ĠAst": 6792,
      "Ġcompete": 6793,
      "Ġfolk": 6794,
      "ĠCEO": 6795,
      "ĠAuthor": 6796,
      "Over": 6797,
      "Ġextensive": 6798,
      "Ġtrying": 6799,
      "ĠAnna": 6800,
      "pedition": 6801,
      "ĠHeart": 6802,
      "Ġhotel": 6803,
      "Ġpromote": 6804,
      "rants": 6805,
      "Ġwounded": 6806,
      "ourney": 6807,
      "59": 6808,
      "pret": 6809,
      "iner": 6810,
      "lets": 6811,
      "ĠErn": 6812,
      "Ġglass": 6813,
      "ĠChairman": 6814,
      "Ġmig": 6815,
      "Ġcausing": 6816,
      "Ġorders": 6817,
      "Ġinters": 6818,
      "ĠBowl": 6819,
      "iful": 6820,
      "Ġestablishment": 6821,
      "Ġphase": 6822,
      "Ġengaged": 6823,
      "don": 6824,
      "stero": 6825,
      "ĠReserve": 6826,
      "ĠYour": 6827,
      "ĠTrump": 6828,
      "Ġemphas": 6829,
      "ĠStudios": 6830,
      "Ġescape": 6831,
      "Ġconcluded": 6832,
      "Ġprize": 6833,
      "fe": 6834,
      "olt": 6835,
      "Ġclassical": 6836,
      "ĠFa": 6837,
      "Ġabandoned": 6838,
      "Ġrequest": 6839,
      "usal": 6840,
      "ĠLike": 6841,
      "Ġ1923": 6842,
      "ĠAnthony": 6843,
      "Ġcricket": 6844,
      "ĠSel": 6845,
      "otte": 6846,
      "Ġped": 6847,
      "Ġrival": 6848,
      "then": 6849,
      "ushed": 6850,
      "Ġcollaboration": 6851,
      "rine": 6852,
      "Ġcontaining": 6853,
      "ĠRepresentatives": 6854,
      "Ġtack": 6855,
      "ĠUC": 6856,
      "Ġcollected": 6857,
      "ĠHamilton": 6858,
      "ĠBou": 6859,
      "ĠIsraeli": 6860,
      "Ġcovers": 6861,
      "otic": 6862,
      "ifying": 6863,
      "ĠTemple": 6864,
      "icide": 6865,
      "iants": 6866,
      "02": 6867,
      "agen": 6868,
      "ĠFight": 6869,
      "ghan": 6870,
      "Ġeducational": 6871,
      "Ġinaug": 6872,
      "ĠNY": 6873,
      "Ġapparent": 6874,
      "ogen": 6875,
      "Ġpassing": 6876,
      "Ġpresidential": 6877,
      "ĠConc": 6878,
      "ĠTit": 6879,
      "Ġcontrast": 6880,
      "vements": 6881,
      "Ġdies": 6882,
      "ĠRyan": 6883,
      "ĠAnne": 6884,
      "Ġcalls": 6885,
      "Ġmap": 6886,
      "ails": 6887,
      "Ġsurg": 6888,
      "ĠBefore": 6889,
      "ĠCook": 6890,
      "Ġspok": 6891,
      "Ġmel": 6892,
      "Ġdefensive": 6893,
      "Ġreception": 6894,
      ".âĢĿ": 6895,
      "ships": 6896,
      "iÃ³n": 6897,
      "ĠHans": 6898,
      "Ġprice": 6899,
      "Ġstatement": 6900,
      "urches": 6901,
      "pective": 6902,
      "going": 6903,
      "Ġplot": 6904,
      "74": 6905,
      "iler": 6906,
      "Ġimportance": 6907,
      "Ġanaly": 6908,
      "ĠDak": 6909,
      "Ġaid": 6910,
      "mingham": 6911,
      "Ġmilit": 6912,
      "ĠAle": 6913,
      "Ġvalley": 6914,
      "wich": 6915,
      "anim": 6916,
      "Ġban": 6917,
      "Ġaccused": 6918,
      "Ġzone": 6919,
      "Nov": 6920,
      "ĠPubl": 6921,
      "Ġjur": 6922,
      "ĠPolit": 6923,
      "ĠÃī": 6924,
      "ĠStand": 6925,
      "Ġaffected": 6926,
      "Some": 6927,
      "Ġrating": 6928,
      "ĠEric": 6929,
      "ĠBaron": 6930,
      "stitutional": 6931,
      "pan": 6932,
      "Ġpublications": 6933,
      "Ġalternative": 6934,
      "Ġrang": 6935,
      "Ġadvoc": 6936,
      "igenous": 6937,
      "Ġgetting": 6938,
      "ĠUtah": 6939,
      "Ġpul": 6940,
      "ublin": 6941,
      "dam": 6942,
      "Ġstarts": 6943,
      "Ġlawyer": 6944,
      "coming": 6945,
      "Ġcru": 6946,
      "ĠCru": 6947,
      "ĠChampion": 6948,
      "Ġbehavior": 6949,
      "uct": 6950,
      "Ġoffensive": 6951,
      "Ġmort": 6952,
      "term": 6953,
      "ovation": 6954,
      "Ġfuel": 6955,
      "Ġreally": 6956,
      "Ġmathemat": 6957,
      "ĠAndre": 6958,
      "Production": 6959,
      "ĠThrough": 6960,
      "Ġnuclear": 6961,
      "Ġauth": 6962,
      "ĠGrant": 6963,
      "ĠRoberts": 6964,
      "CD": 6965,
      "rect": 6966,
      "ĠKey": 6967,
      "aron": 6968,
      "ĠOak": 6969,
      "Ġarmed": 6970,
      "Ġlands": 6971,
      "ĠRailroad": 6972,
      "Ġdecades": 6973,
      "''": 6974,
      "omy": 6975,
      "ista": 6976,
      "Ġoccurs": 6977,
      "ĠPope": 6978,
      "ĠBrian": 6979,
      "ĠDiego": 6980,
      "ache": 6981,
      "itionally": 6982,
      "ĠWell": 6983,
      "Ġment": 6984,
      "Ġcarry": 6985,
      "Ġkeyboard": 6986,
      "othing": 6987,
      "Ġprogramme": 6988,
      "ĠHollywood": 6989,
      "Ġpage": 6990,
      "Ġviews": 6991,
      "Ġjoining": 6992,
      "Ġswim": 6993,
      "Ġring": 6994,
      "ogy": 6995,
      "Ġconstitu": 6996,
      "ducing": 6997,
      "Ġsector": 6998,
      "Ġopin": 6999,
      "ĠPhill": 7000,
      "ĠNar": 7001,
      "found": 7002,
      "ĠOrchestra": 7003,
      "idden": 7004,
      "Trans": 7005,
      "isf": 7006,
      "Ġpand": 7007,
      "ĠDh": 7008,
      "Ġvir": 7009,
      "Ġreaching": 7010,
      "Ġbasic": 7011,
      "ĠEag": 7012,
      "Ġclassification": 7013,
      "Ġinfluenced": 7014,
      "Ġadministrative": 7015,
      "Ġobserved": 7016,
      "ĠWy": 7017,
      "Ġreign": 7018,
      "ĠBerg": 7019,
      "Ġopportunity": 7020,
      "Ġheavily": 7021,
      "Ac": 7022,
      "ĠHotel": 7023,
      "ÑĢ": 7024,
      "ĠAD": 7025,
      "Ġdiam": 7026,
      "obe": 7027,
      "IT": 7028,
      "Ġwitness": 7029,
      "ĠAtlanta": 7030,
      "ĠThen": 7031,
      "ĠBan": 7032,
      "unction": 7033,
      "Ġrepresentative": 7034,
      "ĠCra": 7035,
      "ĠLl": 7036,
      "abama": 7037,
      "Ġmulti": 7038,
      "Rep": 7039,
      "Ġsole": 7040,
      "Ġproved": 7041,
      "Ġcapture": 7042,
      "ĠGirls": 7043,
      "RS": 7044,
      "aired": 7045,
      "Ġfoundation": 7046,
      "ĠSamuel": 7047,
      "ĠTerrit": 7048,
      "Ġsituated": 7049,
      "69": 7050,
      "zi": 7051,
      "Ġalone": 7052,
      "ourses": 7053,
      "oria": 7054,
      "oming": 7055,
      "Ġrise": 7056,
      "First": 7057,
      "aux": 7058,
      "org": 7059,
      "ĠVis": 7060,
      "ĠBecause": 7061,
      "Ġcode": 7062,
      "ĠRick": 7063,
      "Ġ1890": 7064,
      "ĠOregon": 7065,
      "Ġsteel": 7066,
      "Ġdates": 7067,
      "ĠHunt": 7068,
      "assador": 7069,
      "Ġproperties": 7070,
      "icit": 7071,
      "Ġextension": 7072,
      "Ġvolume": 7073,
      "Ġclean": 7074,
      "Ġcrowd": 7075,
      "Ġrepresenting": 7076,
      "ĠEth": 7077,
      "ĠStory": 7078,
      "where": 7079,
      "isode": 7080,
      "ĠTennessee": 7081,
      "Ġagency": 7082,
      "61": 7083,
      "73": 7084,
      "ĠColonel": 7085,
      "Gu": 7086,
      "oa": 7087,
      "ĠJordan": 7088,
      "1994": 7089,
      "Ġsale": 7090,
      "ĠAlbum": 7091,
      "Ġexperien": 7092,
      "Ġequal": 7093,
      "ĠGarden": 7094,
      "aby": 7095,
      "Ġda": 7096,
      "ologies": 7097,
      "Ġfram": 7098,
      "Ġreduce": 7099,
      "ayer": 7100,
      "anned": 7101,
      "die": 7102,
      "ĠGlobal": 7103,
      "Ġvolunte": 7104,
      "Ġargued": 7105,
      "ĠOklahoma": 7106,
      "Ġmerged": 7107,
      "Ġupd": 7108,
      "Ġrebu": 7109,
      "Ġsecretary": 7110,
      "Ġobtain": 7111,
      "ĠDVD": 7112,
      "ĠRegion": 7113,
      "Ġimproved": 7114,
      "Ġahead": 7115,
      "Ġcancell": 7116,
      "ĠMalays": 7117,
      "stic": 7118,
      "adow": 7119,
      "ĠFal": 7120,
      "Ġformal": 7121,
      "Ġschol": 7122,
      "ĠCleveland": 7123,
      "ĠYouth": 7124,
      "hat": 7125,
      "itzerland": 7126,
      "mith": 7127,
      "burn": 7128,
      "Ġox": 7129,
      "acent": 7130,
      "Ġcreat": 7131,
      "ĠHand": 7132,
      "Ġfavour": 7133,
      "orders": 7134,
      "1993": 7135,
      "ĠDemocrat": 7136,
      "ĠDal": 7137,
      "ĠBuck": 7138,
      "62": 7139,
      "ĠPur": 7140,
      "Ġcontained": 7141,
      "chi": 7142,
      "Ġcalling": 7143,
      "ĠWalker": 7144,
      "ĠTel": 7145,
      "ahn": 7146,
      "Ġactivist": 7147,
      "Crit": 7148,
      "Ġwaters": 7149,
      "ĠKevin": 7150,
      "Ġreflect": 7151,
      "unch": 7152,
      "isms": 7153,
      "Ġproced": 7154,
      "Ġproducing": 7155,
      "Leg": 7156,
      "mate": 7157,
      "ĠRol": 7158,
      "Ġ1913": 7159,
      "ĠDetroit": 7160,
      "Eng": 7161,
      "iley": 7162,
      "Ġtoward": 7163,
      "Ġtwelve": 7164,
      "ĠMem": 7165,
      "Ġbriefly": 7166,
      "63": 7167,
      "dale": 7168,
      "Ġheard": 7169,
      "Ġsignal": 7170,
      "Dav": 7171,
      "Ġchoice": 7172,
      "ĠQuebec": 7173,
      "Ġcauses": 7174,
      "cticut": 7175,
      "Ġartillery": 7176,
      "Sec": 7177,
      "ĠClin": 7178,
      "inist": 7179,
      "ĠGa": 7180,
      "ryst": 7181,
      "Ġcalc": 7182,
      "Ġtend": 7183,
      "Ġworth": 7184,
      "ĠLiver": 7185,
      "agues": 7186,
      "final": 7187,
      "Ġimpr": 7188,
      "Ã¨re": 7189,
      "Ã´": 7190,
      "ĠDonald": 7191,
      "uren": 7192,
      "rete": 7193,
      "Ġchemical": 7194,
      "Ġconce": 7195,
      "ĠMoon": 7196,
      "ĠVeg": 7197,
      "Ġinterests": 7198,
      "Ġseventh": 7199,
      "ĠGram": 7200,
      "ĠProt": 7201,
      "icial": 7202,
      "Ġsinging": 7203,
      "Ġbor": 7204,
      "Ġpossess": 7205,
      "Ġinterior": 7206,
      "power": 7207,
      "elson": 7208,
      "Ġlimit": 7209,
      "Qu": 7210,
      "ĠNag": 7211,
      "icians": 7212,
      "ĠKarl": 7213,
      "Â°": 7214,
      "Ġdamaged": 7215,
      "Ġhomes": 7216,
      "ĠFriend": 7217,
      "ĠHistoric": 7218,
      "Ġstandards": 7219,
      "Ġfunctions": 7220,
      "ĠSeason": 7221,
      "ĠDa": 7222,
      "Ġgets": 7223,
      "icts": 7224,
      "Ġdoor": 7225,
      "star": 7226,
      "Ġrefers": 7227,
      "entially": 7228,
      "iege": 7229,
      "Ġadult": 7230,
      "Ġsand": 7231,
      "ĠHighway": 7232,
      "iac": 7233,
      "Ġexistence": 7234,
      "Ġconsisting": 7235,
      "ĠAdministration": 7236,
      "ĠGer": 7237,
      "2022": 7238,
      "IV": 7239,
      "Although": 7240,
      "Ġtrained": 7241,
      "ĠTrib": 7242,
      "Ġspecifically": 7243,
      "Ġnaval": 7244,
      "Ġpandemic": 7245,
      "ĠKa": 7246,
      "Ġcharges": 7247,
      "|}": 7248,
      "ĠMontreal": 7249,
      "ĠRobinson": 7250,
      "mi": 7251,
      "Ġboat": 7252,
      "Ġregistered": 7253,
      "ĠInn": 7254,
      "ocks": 7255,
      "ĠPa": 7256,
      "stan": 7257,
      "ĠBirmingham": 7258,
      "wealth": 7259,
      "orage": 7260,
      "ĠDanish": 7261,
      "owned": 7262,
      "Ġindependence": 7263,
      "Ġdesigner": 7264,
      "ĠAdams": 7265,
      "ĠGard": 7266,
      "Ġtall": 7267,
      "Ġmist": 7268,
      "ĠRy": 7269,
      "Ġcommitted": 7270,
      "Ġ54": 7271,
      "aved": 7272,
      "comm": 7273,
      "riff": 7274,
      "Ġpurchase": 7275,
      "ashi": 7276,
      "Ġbodies": 7277,
      "Ġsuperv": 7278,
      "Ġ1908": 7279,
      "Ġcombination": 7280,
      "Ġnegative": 7281,
      "rett": 7282,
      "uj": 7283,
      "Ġuncle": 7284,
      "Ġconstant": 7285,
      "Ñģ": 7286,
      "eto": 7287,
      "anny": 7288,
      "Ġinternal": 7289,
      "onder": 7290,
      "wen": 7291,
      "Ġpoly": 7292,
      "Ġextrem": 7293,
      "from": 7294,
      "ĠFurther": 7295,
      "ĠStew": 7296,
      "ailand": 7297,
      "1980": 7298,
      "ĠVienna": 7299,
      "Ġpione": 7300,
      "ĠChen": 7301,
      "ture": 7302,
      "emble": 7303,
      "Art": 7304,
      "Ġpasses": 7305,
      "ĠCall": 7306,
      "Ġshooting": 7307,
      "1992": 7308,
      "ĠSri": 7309,
      "ĠDance": 7310,
      "Ġbroken": 7311,
      "1991": 7312,
      "\").": 7313,
      "Ġille": 7314,
      "ĠBart": 7315,
      "Ġfranchise": 7316,
      "Ġhydro": 7317,
      "III": 7318,
      "Ġpup": 7319,
      "Ġgraduate": 7320,
      "ĠAlexand": 7321,
      "71": 7322,
      "roc": 7323,
      "ĠOnly": 7324,
      "rome": 7325,
      "Ġruled": 7326,
      ")\"": 7327,
      "apted": 7328,
      "eland": 7329,
      "Ġchose": 7330,
      "ĠRound": 7331,
      "Ġ(;": 7332,
      "Ġbottom": 7333,
      "Ġobl": 7334,
      "Ġdetails": 7335,
      "West": 7336,
      "Ġfine": 7337,
      "Death": 7338,
      "ĠArea": 7339,
      "Ġaw": 7340,
      "ĠArchitect": 7341,
      "ĠPitts": 7342,
      "Ġduty": 7343,
      "ĠPed": 7344,
      "Ġ400": 7345,
      "ĠPalace": 7346,
      "Ġcaught": 7347,
      "Ġclin": 7348,
      "Ġpoll": 7349,
      "Ġmaintained": 7350,
      "ĠPalest": 7351,
      "Final": 7352,
      "Ġdescribes": 7353,
      "autiful": 7354,
      "pir": 7355,
      "amic": 7356,
      "ĠBaltimore": 7357,
      "oni": 7358,
      "Ġtransform": 7359,
      "ĠBruce": 7360,
      "Ġere": 7361,
      "rees": 7362,
      "ailed": 7363,
      "Ġinvasion": 7364,
      "Ġpowers": 7365,
      "Ġimages": 7366,
      "aked": 7367,
      "ournament": 7368,
      "ĠKaz": 7369,
      "rane": 7370,
      "issance": 7371,
      "March": 7372,
      "Ġtries": 7373,
      "Ġquant": 7374,
      "Ġcomic": 7375,
      "ĠArk": 7376,
      "Ġtrip": 7377,
      "%)": 7378,
      "Ġfired": 7379,
      "Ġfiction": 7380,
      "olph": 7381,
      "ĠIron": 7382,
      "ĠCow": 7383,
      "Ġgang": 7384,
      "Ġweather": 7385,
      "ĠFern": 7386,
      "Ġscale": 7387,
      "Ġnick": 7388,
      "ĠAlabama": 7389,
      "heel": 7390,
      "ĠDue": 7391,
      "ĠLog": 7392,
      "ĠFac": 7393,
      "Ġresign": 7394,
      "Ġtechniques": 7395,
      "Ġentirely": 7396,
      "Ġadvent": 7397,
      "ibl": 7398,
      "Ġresidence": 7399,
      "Ġassess": 7400,
      "Ġinvestment": 7401,
      "Ġintroduction": 7402,
      "Ġpoetry": 7403,
      "Ġhour": 7404,
      "ĠLanc": 7405,
      "Ġparticipate": 7406,
      "ĠJohann": 7407,
      "ĠHills": 7408,
      "ĠRights": 7409,
      "Ġminute": 7410,
      "Ġcosts": 7411,
      "inburgh": 7412,
      "rastructure": 7413,
      "cons": 7414,
      "ĠLyn": 7415,
      "Ġconvent": 7416,
      "Ġconsequ": 7417,
      "BB": 7418,
      "active": 7419,
      "Ġquite": 7420,
      "Ġgene": 7421,
      "Ġapplications": 7422,
      "PI": 7423,
      "Ġarchae": 7424,
      "'m": 7425,
      "DA": 7426,
      "Ġpian": 7427,
      "do": 7428,
      "ĠLang": 7429,
      "Ġvide": 7430,
      "poses": 7431,
      "ĠPlace": 7432,
      "aver": 7433,
      "orf": 7434,
      "ĠDark": 7435,
      "ĠPhys": 7436,
      "Ġenl": 7437,
      "ĠLawrence": 7438,
      "Ġreality": 7439,
      "Ã©s": 7440,
      "ĠSwitzerland": 7441,
      "Ġbrown": 7442,
      "million": 7443,
      "ĠFarm": 7444,
      "Ġ49": 7445,
      "Ġcharged": 7446,
      "ĠMach": 7447,
      "Ġ65": 7448,
      "Star": 7449,
      "ĠGran": 7450,
      "iki": 7451,
      "argo": 7452,
      "ĠLiberal": 7453,
      "ivalent": 7454,
      "Ġrenew": 7455,
      "Ġdemonst": 7456,
      "Ġbelieve": 7457,
      "Ġideas": 7458,
      "yth": 7459,
      "Ġemot": 7460,
      "Ġopera": 7461,
      "Ġusers": 7462,
      "Ġcastle": 7463,
      "Season": 7464,
      "Ġleads": 7465,
      "Ġeducated": 7466,
      "Ġtesting": 7467,
      "ĠWinter": 7468,
      "ĠSud": 7469,
      "Ġsteam": 7470,
      "Ġcore": 7471,
      "utation": 7472,
      "Ġdebuted": 7473,
      "ĠBrazilian": 7474,
      "ĠGreece": 7475,
      "Ġcompris": 7476,
      "ĠAfghan": 7477,
      "unnel": 7478,
      "Ġdivers": 7479,
      "Ġpros": 7480,
      "Ġ1880": 7481,
      "Ġchallenge": 7482,
      "Can": 7483,
      "Ġbishop": 7484,
      "rapy": 7485,
      "olec": 7486,
      "ĠAlfred": 7487,
      "Ġnegoti": 7488,
      "Ġobjects": 7489,
      "aughters": 7490,
      "ĠAdvent": 7491,
      "Ġsell": 7492,
      "ĠTar": 7493,
      "ĠGon": 7494,
      "Ġdie": 7495,
      "Ġ42": 7496,
      "Ġdelay": 7497,
      "ĠKentucky": 7498,
      "Ġchair": 7499,
      "Ġ1906": 7500,
      "Ġpossibly": 7501,
      "marine": 7502,
      "Ġcontributions": 7503,
      "Ġdoll": 7504,
      "Ġdriving": 7505,
      "ĠDallas": 7506,
      "ilst": 7507,
      "Ġdesigns": 7508,
      "uki": 7509,
      "asa": 7510,
      "idel": 7511,
      "Ġanimal": 7512,
      "icate": 7513,
      "angel": 7514,
      "ĠMarine": 7515,
      "ĠGib": 7516,
      "Ġvo": 7517,
      "aire": 7518,
      "Ġ41": 7519,
      "Ġedge": 7520,
      "ĠConnecticut": 7521,
      "ĠRace": 7522,
      "Ġ44": 7523,
      "hibition": 7524,
      "Ġax": 7525,
      "ĠDublin": 7526,
      "ĠThird": 7527,
      "ushing": 7528,
      "Ġcomposition": 7529,
      "Ġderived": 7530,
      "ĠJimmy": 7531,
      "ĠFM": 7532,
      "ĠFel": 7533,
      "ĠBetween": 7534,
      "ĠAge": 7535,
      "Ġ1911": 7536,
      "ĠOm": 7537,
      "ippi": 7538,
      "ĠJesus": 7539,
      "Ġcrown": 7540,
      "Ġcolspan": 7541,
      "Ġbands": 7542,
      "Club": 7543,
      "ĠABC": 7544,
      "ogether": 7545,
      "ÃŃo": 7546,
      "ĠMarket": 7547,
      "ĠIndependent": 7548,
      "ĠAM": 7549,
      "ĠPap": 7550,
      "Ep": 7551,
      "orial": 7552,
      "cia": 7553,
      "bishop": 7554,
      "arner": 7555,
      "ĠCemetery": 7556,
      "ĠPA": 7557,
      "ĠEven": 7558,
      "Polit": 7559,
      "Ġsave": 7560,
      "ĠMunic": 7561,
      "uerto": 7562,
      "athe": 7563,
      "ĠChall": 7564,
      "Ã¥": 7565,
      "ĠFil": 7566,
      "Ġdistributed": 7567,
      "ĠJuan": 7568,
      "Ġflo": 7569,
      "Ġresponsibility": 7570,
      "ĠDave": 7571,
      "Ġdivor": 7572,
      "Ġmoment": 7573,
      "Ġadvantage": 7574,
      "state": 7575,
      "ĠAlan": 7576,
      "ĠMatthew": 7577,
      "Ġseems": 7578,
      "Ġkil": 7579,
      "pen": 7580,
      "urday": 7581,
      "Ġengines": 7582,
      "Ġdrawn": 7583,
      "ĠMission": 7584,
      "Ġ64": 7585,
      "ĠMayor": 7586,
      "Ġoperate": 7587,
      "Ġast": 7588,
      "Ġflat": 7589,
      "Ġwriters": 7590,
      "Ġadvis": 7591,
      "haps": 7592,
      "Ġkid": 7593,
      "icks": 7594,
      "GB": 7595,
      "Ġrugby": 7596,
      "ĠSeattle": 7597,
      "ĠToday": 7598,
      "Ġstrip": 7599,
      "ĠRub": 7600,
      "Ġdetermine": 7601,
      "Ġrailroad": 7602,
      "ĠTaiwan": 7603,
      "Ġexerc": 7604,
      "Ġrepeated": 7605,
      "Ġregarded": 7606,
      "ĠBeat": 7607,
      "Ġstages": 7608,
      "Ġmissing": 7609,
      "ruption": 7610,
      "Ġincorporated": 7611,
      "olly": 7612,
      "ĠShah": 7613,
      "ucks": 7614,
      "Ġroutes": 7615,
      "Public": 7616,
      "ĠMaj": 7617,
      "Ġresidential": 7618,
      "OR": 7619,
      "onds": 7620,
      "Ġassault": 7621,
      "1989": 7622,
      "Ġcriticized": 7623,
      "Ġfactors": 7624,
      "pur": 7625,
      "ĠRab": 7626,
      "resident": 7627,
      "ĠOttoman": 7628,
      "Comm": 7629,
      "eless": 7630,
      "ĠJazz": 7631,
      "Ġqual": 7632,
      "'re": 7633,
      "Ġmusicians": 7634,
      "Ġ1902": 7635,
      "lie": 7636,
      "ĠToy": 7637,
      "Ġmeasures": 7638,
      "Ġaccompanied": 7639,
      "Ġtheater": 7640,
      "ania": 7641,
      "Ġresistance": 7642,
      "iggest": 7643,
      "ni": 7644,
      "Ġhair": 7645,
      "Ġseconds": 7646,
      "Ġpitch": 7647,
      "Ġdistricts": 7648,
      "ĠSerge": 7649,
      "Ġcensus": 7650,
      "Ġstopped": 7651,
      "ĠPear": 7652,
      "Ġans": 7653,
      "Ġ1905": 7654,
      "Dist": 7655,
      "Ġsections": 7656,
      "enses": 7657,
      "Ġsubstant": 7658,
      "Ġreturns": 7659,
      "Ġfactory": 7660,
      "ĠBox": 7661,
      "inking": 7662,
      "South": 7663,
      "ĠCommonwealth": 7664,
      "Ġones": 7665,
      "XX": 7666,
      "Ġcircum": 7667,
      "ĠThailand": 7668,
      "ĠMargaret": 7669,
      "lov": 7670,
      "ĠMack": 7671,
      "oslav": 7672,
      "Rober": 7673,
      "dd": 7674,
      "Ġalleg": 7675,
      "Ġregularly": 7676,
      "ĠMcK": 7677,
      "Ġpassengers": 7678,
      "uy": 7679,
      "ĠCrown": 7680,
      "Ġalter": 7681,
      "pecies": 7682,
      "ĠBooks": 7683,
      "ĠSport": 7684,
      "ĠPra": 7685,
      "Ġwhy": 7686,
      "World": 7687,
      "ĠKings": 7688,
      "Ġsurvived": 7689,
      "Later": 7690,
      "acc": 7691,
      "lades": 7692,
      "ĠHawai": 7693,
      "including": 7694,
      "ĠLiverpool": 7695,
      "Ġdeaths": 7696,
      "ĠProdu": 7697,
      "Ġskills": 7698,
      "ĠMicro": 7699,
      "Ġvalues": 7700,
      "etime": 7701,
      "boy": 7702,
      "Ġselling": 7703,
      "Ġapart": 7704,
      "ĠWho": 7705,
      "Ġpublisher": 7706,
      "Ġclosely": 7707,
      "odox": 7708,
      "ĠBaseball": 7709,
      "roke": 7710,
      "Ġdistinct": 7711,
      "ĠIndonesia": 7712,
      "ĠLiter": 7713,
      "ĠHarvard": 7714,
      "Ġconcerns": 7715,
      "ĠHop": 7716,
      "ĠColomb": 7717,
      "Ġ1907": 7718,
      "vy": 7719,
      "ĠDisc": 7720,
      "Ġassistance": 7721,
      "ĠHamp": 7722,
      "ussion": 7723,
      "ĠAssistant": 7724,
      "Ġdidn": 7725,
      "Ġstanding": 7726,
      "related": 7727,
      "Ġarranged": 7728,
      "Ġchain": 7729,
      "avalry": 7730,
      "EA": 7731,
      "ando": 7732,
      "ĠPeters": 7733,
      "Ġlooking": 7734,
      "ĠEnvironment": 7735,
      "iency": 7736,
      "ĠSky": 7737,
      "ET": 7738,
      "Ġwheel": 7739,
      "Ġadmitted": 7740,
      "Ġmobile": 7741,
      "Ġanniversary": 7742,
      "Ġdeputy": 7743,
      "oj": 7744,
      "racy": 7745,
      "Ġcorpor": 7746,
      "ĠCroat": 7747,
      "Ġinhabit": 7748,
      "erk": 7749,
      "Ġcarrying": 7750,
      "Ġdocuments": 7751,
      "Ġpainted": 7752,
      "SC": 7753,
      "ĠImperial": 7754,
      "ĠAR": 7755,
      "ĠAy": 7756,
      "Ġgod": 7757,
      "pm": 7758,
      "rong": 7759,
      "Ġactual": 7760,
      "Ġstruck": 7761,
      "Ġparalle": 7762,
      "dr": 7763,
      "Ġmetres": 7764,
      "br": 7765,
      "Ġcatal": 7766,
      "Ġattached": 7767,
      "ĠDefense": 7768,
      "sch": 7769,
      "Ġthick": 7770,
      "inter": 7771,
      "ĠMorgan": 7772,
      "DP": 7773,
      "Ġrecip": 7774,
      "Ã©t": 7775,
      "Ġintelligence": 7776,
      "Ġshowing": 7777,
      "ĠCommunist": 7778,
      "hol": 7779,
      "fef": 7780,
      "ĠCommunic": 7781,
      "atherine": 7782,
      "ĠSupport": 7783,
      "ĠSenator": 7784,
      "ommod": 7785,
      "fefefe": 7786,
      "umin": 7787,
      "Ġrejected": 7788,
      "Ġwithdraw": 7789,
      "ussian": 7790,
      "ĠInvest": 7791,
      "ĠWorks": 7792,
      "Ġunsuccess": 7793,
      "EP": 7794,
      "uster": 7795,
      "rama": 7796,
      "emen": 7797,
      "Ġcrossing": 7798,
      "Ġexamples": 7799,
      "\":": 7800,
      "Ġtemperature": 7801,
      "abled": 7802,
      "ĠVinc": 7803,
      "ĠWard": 7804,
      "elli": 7805,
      "Ġbrain": 7806,
      "ĠEver": 7807,
      "ĠRussell": 7808,
      "Comp": 7809,
      "Ġsoci": 7810,
      "ĠSac": 7811,
      "Ġpractices": 7812,
      "Ġinsc": 7813,
      "auk": 7814,
      "Ġwindow": 7815,
      "Ġveter": 7816,
      "Ġcheck": 7817,
      "Ġselect": 7818,
      "Ġ1909": 7819,
      "Ġmouth": 7820,
      "Ġdepth": 7821,
      "Ġreligion": 7822,
      "ĠLast": 7823,
      "Ġsettle": 7824,
      "ige": 7825,
      "ĠMitchell": 7826,
      "Ġsession": 7827,
      "ĠChile": 7828,
      "aman": 7829,
      "Ġhockey": 7830,
      "ĠUpon": 7831,
      "ĠAgency": 7832,
      "ĠDC": 7833,
      "iere": 7834,
      "Ġremark": 7835,
      "iece": 7836,
      "Ġcontrolled": 7837,
      "Ab": 7838,
      "Ġnortheast": 7839,
      "ĠConstitution": 7840,
      "Ġowners": 7841,
      "ĠPeace": 7842,
      "ĠMississ": 7843,
      "My": 7844,
      "Orig": 7845,
      "mers": 7846,
      "Ġfaith": 7847,
      "ĠIvan": 7848,
      "ester": 7849,
      "ĠRoc": 7850,
      "ultan": 7851,
      "Ġsynthe": 7852,
      "Ġdelivered": 7853,
      "Ġbattalion": 7854,
      "ials": 7855,
      "Ġnothing": 7856,
      "Ġsevere": 7857,
      "Ġchampions": 7858,
      "ĠCooper": 7859,
      "ED": 7860,
      "hard": 7861,
      "antly": 7862,
      "Ġdevice": 7863,
      "National": 7864,
      "ĠWright": 7865,
      "Ġcommit": 7866,
      "ĠVillage": 7867,
      "orses": 7868,
      "ĠPittsburgh": 7869,
      "Ġphotograph": 7870,
      "ĠHend": 7871,
      "Ġgrade": 7872,
      "Ġassumed": 7873,
      "enez": 7874,
      "ĠJosÃ©": 7875,
      "GA": 7876,
      "Ġduties": 7877,
      "85": 7878,
      "Ġdry": 7879,
      "Ġalt": 7880,
      "ĠProte": 7881,
      "Ġdynasty": 7882,
      "ĪĴ": 7883,
      "othes": 7884,
      "Ġgrounds": 7885,
      "ĠFine": 7886,
      "Ġadapted": 7887,
      "Ġstarred": 7888,
      "ĠKan": 7889,
      "Ġretained": 7890,
      "Ġdemand": 7891,
      "Ġarrival": 7892,
      "ĠFried": 7893,
      "Ġinterested": 7894,
      "ĠOperation": 7895,
      "Ġboys": 7896,
      "Ġsigning": 7897,
      "Ġfreedom": 7898,
      "ĠPuerto": 7899,
      "Ġrich": 7900,
      "ĠPortugal": 7901,
      "oi": 7902,
      "ĠFinn": 7903,
      "Ġcompetitions": 7904,
      "fessional": 7905,
      "86": 7906,
      "rix": 7907,
      "Ġqualifying": 7908,
      "ĠPun": 7909,
      "ĠThompson": 7910,
      "ĠPrincess": 7911,
      "person": 7912,
      "ĠEc": 7913,
      "Ġeasily": 7914,
      "Ġadjacent": 7915,
      "Ġfiled": 7916,
      "operation": 7917,
      "ĠInformation": 7918,
      "Ġexpression": 7919,
      "Ġstands": 7920,
      "Ġjustice": 7921,
      "ridges": 7922,
      "ĠStewart": 7923,
      "ĠRow": 7924,
      "Ġrelief": 7925,
      "Ġ;": 7926,
      "ĠDod": 7927,
      "ĠArgentina": 7928,
      "Ġexperienced": 7929,
      "Ġpool": 7930,
      "Ġbuy": 7931,
      "level": 7932,
      "Ġairport": 7933,
      "ĠCant": 7934,
      "Ġbenef": 7935,
      "Ġsequence": 7936,
      "Ġcitizen": 7937,
      "Ġsam": 7938,
      "ĠCamer": 7939,
      "bal": 7940,
      "Ġtick": 7941,
      "opter": 7942,
      "ĠMarie": 7943,
      "Ġactors": 7944,
      "Ġcourses": 7945,
      "ĠRand": 7946,
      "rac": 7947,
      "ĠRecord": 7948,
      "ĠEdinburgh": 7949,
      "Ġitems": 7950,
      "ĠBulg": 7951,
      "ĠWarren": 7952,
      "ĠEarly": 7953,
      "ĠOriginal": 7954,
      "Ġaccommod": 7955,
      "cht": 7956,
      "ashed": 7957,
      "Ġhits": 7958,
      "arma": 7959,
      "ĠBull": 7960,
      "Ġcredited": 7961,
      "ĠBed": 7962,
      "Ġdifference": 7963,
      "Ġmeters": 7964,
      "ĠBrothers": 7965,
      "Pe": 7966,
      "Ġconduct": 7967,
      "Ġpolicies": 7968,
      "unes": 7969,
      "1987": 7970,
      "Ġbusinessman": 7971,
      "Ġrevolution": 7972,
      "illo": 7973,
      "ĠSaf": 7974,
      "Ð¾Ð": 7975,
      "Ġopposite": 7976,
      "ÑĤ": 7977,
      "ĠDakota": 7978,
      "iah": 7979,
      "Ġearliest": 7980,
      "lock": 7981,
      "Ġtranslated": 7982,
      "Par": 7983,
      "Ġstood": 7984,
      "Ġsomew": 7985,
      "Ġgoods": 7986,
      "Ġfly": 7987,
      "á»": 7988,
      "ĠWol": 7989,
      "ĠIns": 7990,
      "ĠGill": 7991,
      "Ġchance": 7992,
      "Ġlosses": 7993,
      "Ġbed": 7994,
      "seud": 7995,
      "Ġrecept": 7996,
      "Sing": 7997,
      "Ġvictims": 7998,
      "Ġpriest": 7999,
      "Ġinnings": 8000,
      "lete": 8001,
      "Ġgender": 8002,
      "ĠAgric": 8003,
      "Ġreading": 8004,
      "Ġinvolving": 8005,
      "udi": 8006,
      "Ġcrisis": 8007,
      "ilot": 8008,
      "Ġpenal": 8009,
      "Ġhumans": 8010,
      "ĠKon": 8011,
      "ĠEmer": 8012,
      "ricane": 8013,
      "ĠJose": 8014,
      "Ġinterpret": 8015,
      "ĠTamil": 8016,
      "Ã«": 8017,
      "ĠBoys": 8018,
      "Ġchurches": 8019,
      "ureau": 8020,
      "ĠAssoci": 8021,
      "Ġreplacement": 8022,
      "ĠCole": 8023,
      "Ġcolonial": 8024,
      "Ġhighway": 8025,
      "Ġ(,": 8026,
      "ĠVik": 8027,
      "Ġdecade": 8028,
      "ĠDenmark": 8029,
      "Ġethnic": 8030,
      "ĠEnergy": 8031,
      "who": 8032,
      "Ġwindows": 8033,
      "Ġcollections": 8034,
      "Ġlearned": 8035,
      "lan": 8036,
      "ĠStage": 8037,
      "Ġreleg": 8038,
      "Ġartistic": 8039,
      "jamin": 8040,
      "Ġensure": 8041,
      "Ġthrow": 8042,
      "Ġstadium": 8043,
      "Ġexact": 8044,
      "Ġaccur": 8045,
      "ĠCarter": 8046,
      "Part": 8047,
      "usalem": 8048,
      "iples": 8049,
      "ĠCapital": 8050,
      "Ġsymbol": 8051,
      "ĠFA": 8052,
      "ĠBanglades": 8053,
      "Ġheaded": 8054,
      "Mich": 8055,
      "Ġtied": 8056,
      "Ġeye": 8057,
      "ĠGene": 8058,
      "ĠLane": 8059,
      "Ġsurre": 8060,
      "ners": 8061,
      "ĠSeveral": 8062,
      "Ġcous": 8063,
      "Ġguitarist": 8064,
      "Ġsubjects": 8065,
      "edding": 8066,
      "ĠKelly": 8067,
      "kov": 8068,
      "à¸": 8069,
      "ugar": 8070,
      "ÃŃn": 8071,
      "formance": 8072,
      "igious": 8073,
      "Ġreserv": 8074,
      "ĠAndy": 8075,
      "ĠBelgium": 8076,
      "bel": 8077,
      "ĠExt": 8078,
      "ĠCampbell": 8079,
      "auty": 8080,
      "Ġfrag": 8081,
      "Ġflying": 8082,
      "Ġancest": 8083,
      "Ġlat": 8084,
      "Ġnom": 8085,
      "ĠApp": 8086,
      "Ġdirectors": 8087,
      "Ġpublishing": 8088,
      "Christ": 8089,
      "ĠUnit": 8090,
      "Ġfinals": 8091,
      "United": 8092,
      "top": 8093,
      "orus": 8094,
      "ivate": 8095,
      "Men": 8096,
      "ĠCass": 8097,
      "Ġanth": 8098,
      "Ġ43": 8099,
      "Ġreplacing": 8100,
      "ooth": 8101,
      "heme": 8102,
      "Ġretail": 8103,
      "Ġcontext": 8104,
      "Ġ1904": 8105,
      "Education": 8106,
      "inding": 8107,
      "har": 8108,
      "Ġbusinesses": 8109,
      "ĠMetropolitan": 8110,
      "tenance": 8111,
      "Ġrestrict": 8112,
      "ĠCommissioner": 8113,
      "cious": 8114,
      "abad": 8115,
      "Ġmedium": 8116,
      "mary": 8117,
      "master": 8118,
      "ĠSee": 8119,
      "Ġturns": 8120,
      "Ġinjuries": 8121,
      "Ġquestions": 8122,
      "Ġtank": 8123,
      "ĠJason": 8124,
      "Ġgreatest": 8125,
      "Phil": 8126,
      "Ġchapter": 8127,
      "ĠAC": 8128,
      "borough": 8129,
      "ĠFive": 8130,
      "oenix": 8131,
      "ĠJudge": 8132,
      "Ġrecru": 8133,
      "hr": 8134,
      "antasy": 8135,
      "Ġownership": 8136,
      "Ġ1903": 8137,
      "ĠSarah": 8138,
      "ĠCathedral": 8139,
      "Ġfan": 8140,
      "endment": 8141,
      "ĠNorman": 8142,
      "iable": 8143,
      "ĠJohnny": 8144,
      "89": 8145,
      "ĠTak": 8146,
      "ĠPas": 8147,
      "ĠDean": 8148,
      "Ġlegislation": 8149,
      "asure": 8150,
      "Ġchildhood": 8151,
      "ĠMarshall": 8152,
      "ayan": 8153,
      "Ġclimb": 8154,
      "Ġevening": 8155,
      "Ġsignificantly": 8156,
      "ifer": 8157,
      "Ġtransition": 8158,
      "Ġfaculty": 8159,
      "Ġassign": 8160,
      "Ġ51": 8161,
      "Ġsuspended": 8162,
      "Paul": 8163,
      "Ġbiggest": 8164,
      "ĠFall": 8165,
      "atters": 8166,
      "claimed": 8167,
      "Ġorganisation": 8168,
      "Ju": 8169,
      "ĠSign": 8170,
      "ĠTheater": 8171,
      "thodox": 8172,
      "ĠMorris": 8173,
      "Ġflu": 8174,
      "Ġvert": 8175,
      "Ġreleases": 8176,
      "Ġappeal": 8177,
      "Ġweak": 8178,
      "Ġ1901": 8179,
      "Ġcriticism": 8180,
      "Rele": 8181,
      "Ġpreced": 8182,
      "ĠCrit": 8183,
      "ĠBris": 8184,
      "ĠCatal": 8185,
      "Ġcomput": 8186,
      "ellite": 8187,
      "Ġcoordin": 8188,
      "ĠMedicine": 8189,
      "Ġotherwise": 8190,
      "Ġneighbour": 8191,
      "Ġoption": 8192,
      "Ġ55": 8193,
      "etty": 8194,
      "January": 8195,
      "Ġcards": 8196,
      "inian": 8197,
      "Car": 8198,
      "ĠChem": 8199,
      "ompl": 8200,
      "Ġgarden": 8201,
      "Ġrooms": 8202,
      "Ġmembership": 8203,
      "Ġ1896": 8204,
      "uez": 8205,
      "Ġflowers": 8206,
      "Ġdescription": 8207,
      "nik": 8208,
      "Ġmart": 8209,
      "Ġadaptation": 8210,
      "Ġvideos": 8211,
      "EN": 8212,
      "Ġsuggests": 8213,
      "Ġtranslation": 8214,
      "ĠConfeder": 8215,
      "1986": 8216,
      "Ġpurposes": 8217,
      "Ġlinked": 8218,
      "EFA": 8219,
      "casting": 8220,
      "Ġterror": 8221,
      "Ġprepared": 8222,
      "mina": 8223,
      "RC": 8224,
      "ĠAviation": 8225,
      "rating": 8226,
      "Ġinher": 8227,
      "ĠAustin": 8228,
      "ĠSwiss": 8229,
      "Ġsoundtrack": 8230,
      "gun": 8231,
      "Ġacid": 8232,
      "ĠKnight": 8233,
      "Ġdebt": 8234,
      "Ġappropri": 8235,
      "Ġprotected": 8236,
      "ĠOpera": 8237,
      "ĠBrooklyn": 8238,
      "eta": 8239,
      "ĠNav": 8240,
      "insula": 8241,
      "Ġstayed": 8242,
      "Sup": 8243,
      "ĠOnce": 8244,
      "Ġrunner": 8245,
      "ĠLank": 8246,
      "Discography": 8247,
      "pers": 8248,
      "Ġformally": 8249,
      "Ġutil": 8250,
      "itable": 8251,
      "Ġdisappe": 8252,
      "Ġoccupation": 8253,
      "lon": 8254,
      "Ġcook": 8255,
      "ĠTournament": 8256,
      "ieval": 8257,
      "etta": 8258,
      "Ġcopy": 8259,
      "ĠEU": 8260,
      "merce": 8261,
      "Ġbelief": 8262,
      "ĠTrade": 8263,
      "ĠEvery": 8264,
      "ĠChamber": 8265,
      "Ġexplos": 8266,
      "ĠNash": 8267,
      "Ġ52": 8268,
      "coh": 8269,
      "ĠRot": 8270,
      "ithuan": 8271,
      "Ġ1870": 8272,
      "ĠHere": 8273,
      "rav": 8274,
      "profit": 8275,
      "Ġmining": 8276,
      "uber": 8277,
      "ĠMort": 8278,
      "ĠDyn": 8279,
      "December": 8280,
      "Ġnomination": 8281,
      "Ġshel": 8282,
      "atures": 8283,
      "Ġisol": 8284,
      "ĠAgain": 8285,
      "Ġnotably": 8286,
      "Ġnickn": 8287,
      "MC": 8288,
      "Ġstorage": 8289,
      "Ġstreets": 8290,
      "Ġagricultural": 8291,
      "ĠDefence": 8292,
      "Per": 8293,
      "des": 8294,
      "ĠPad": 8295,
      "Ġteen": 8296,
      "Ġtemporary": 8297,
      "Ġmotion": 8298,
      "Ġpianist": 8299,
      "PC": 8300,
      "Ġdaughters": 8301,
      "aba": 8302,
      "Ġcommemor": 8303,
      "ĠLouisiana": 8304,
      "ĠRoger": 8305,
      "Ġ150": 8306,
      "Ġinfl": 8307,
      "Ġshares": 8308,
      "ĠKennedy": 8309,
      "Most": 8310,
      "Ġrestored": 8311,
      "omas": 8312,
      "Ġunf": 8313,
      "ĠMean": 8314,
      "ĠBernard": 8315,
      "ĠAustrian": 8316,
      "Ġdepend": 8317,
      "Ġinvolvement": 8318,
      "Ġphotography": 8319,
      "ĠRan": 8320,
      "owski": 8321,
      "umar": 8322,
      "Ġfactor": 8323,
      "Ġenh": 8324,
      "ĠDead": 8325,
      "Ġmedicine": 8326,
      "Ã©n": 8327,
      "Ġlov": 8328,
      "apolis": 8329,
      "ON": 8330,
      "ĠPC": 8331,
      "Ġcommunication": 8332,
      "Ġperfect": 8333,
      "1970": 8334,
      "ĠDerby": 8335,
      "ĠOur": 8336,
      "Ġresolution": 8337,
      "ĠRegister": 8338,
      "Ġgraduating": 8339,
      "ĠJerusalem": 8340,
      "James": 8341,
      "ĠRav": 8342,
      "Ġexpert": 8343,
      "Ġaer": 8344,
      "Ġimprison": 8345,
      "Ġdivisions": 8346,
      "Ġelder": 8347,
      "Ġseparated": 8348,
      "verseas": 8349,
      "idency": 8350,
      "Ġstores": 8351,
      "ĠEstero": 8352,
      "uda": 8353,
      "1988": 8354,
      "Ġemergency": 8355,
      "ĠDeath": 8356,
      "Ġunus": 8357,
      "attan": 8358,
      "Ġroads": 8359,
      "ĠKo": 8360,
      "Ġeval": 8361,
      "Ġthousands": 8362,
      "ĠWhat": 8363,
      "ĠMichel": 8364,
      "itals": 8365,
      "ĠArtillery": 8366,
      "ĠDNA": 8367,
      "ĠOverall": 8368,
      "Ġdemonstr": 8369,
      "ĠSn": 8370,
      "otton": 8371,
      "Ġbit": 8372,
      "assy": 8373,
      "Ġsoil": 8374,
      "break": 8375,
      "ĠAT": 8376,
      "ĠNob": 8377,
      "ĠAuthority": 8378,
      "east": 8379,
      "Ġhill": 8380,
      "stances": 8381,
      "Ġnor": 8382,
      "ivated": 8383,
      "Ġtail": 8384,
      "ĠBuff": 8385,
      "rang": 8386,
      "Ġinfantry": 8387,
      "If": 8388,
      "Ġhunt": 8389,
      "ĠSymph": 8390,
      "Ġnorthwest": 8391,
      "Ġmanusc": 8392,
      "Ġcycle": 8393,
      "rele": 8394,
      "utions": 8395,
      "ĠWoman": 8396,
      "ĠVar": 8397,
      "ĠPortland": 8398,
      "ĠNelson": 8399,
      "Ġtie": 8400,
      "oda": 8401,
      "geon": 8402,
      "ensed": 8403,
      "Ġhelping": 8404,
      "feld": 8405,
      "Ġscheme": 8406,
      "hai": 8407,
      "ulu": 8408,
      "Ġminimum": 8409,
      "Ġrequirements": 8410,
      "ĠLib": 8411,
      "ĠTig": 8412,
      "Ġattract": 8413,
      "Ġdifferences": 8414,
      "ĠLimited": 8415,
      "ĠCulture": 8416,
      "Ġ46": 8417,
      "Ġpp": 8418,
      "1985": 8419,
      "dy": 8420,
      "ographical": 8421,
      "rage": 8422,
      "ĠRain": 8423,
      "Ġadding": 8424,
      "Ġopinion": 8425,
      "North": 8426,
      "ĠInternet": 8427,
      "Ġphilosophy": 8428,
      "ĠCare": 8429,
      "Ġdenied": 8430,
      "Ġcatch": 8431,
      "Ġaspects": 8432,
      "ĠAdmiral": 8433,
      "Ġexperiences": 8434,
      "ĠEvans": 8435,
      "ci": 8436,
      "Ġhur": 8437,
      "Ġshut": 8438,
      "Ġraise": 8439,
      "rm": 8440,
      "heastern": 8441,
      "ench": 8442,
      "Ġislands": 8443,
      "ĠNon": 8444,
      "Ðº": 8445,
      "ĠDub": 8446,
      "ĠEqu": 8447,
      "Ġlanding": 8448,
      "Ġdiagn": 8449,
      "LC": 8450,
      "ĠAlban": 8451,
      "ĠMississippi": 8452,
      "Ġtechnique": 8453,
      "ĠCharlie": 8454,
      "August": 8455,
      "ĠHunter": 8456,
      "ĠThough": 8457,
      "ĠAlliance": 8458,
      "ĠMaur": 8459,
      "ĠBroadway": 8460,
      "ĠMurray": 8461,
      "ario": 8462,
      "German": 8463,
      "RI": 8464,
      "Ġ1898": 8465,
      "David": 8466,
      "June": 8467,
      "Ġphen": 8468,
      "abel": 8469,
      "Ġrestaurant": 8470,
      "Ġcancelled": 8471,
      "Ġsed": 8472,
      "ĠTraining": 8473,
      "Ġpicture": 8474,
      "October": 8475,
      "tha": 8476,
      "Ġmarine": 8477,
      "Ġcredit": 8478,
      "cz": 8479,
      "isition": 8480,
      "Ġsuccessor": 8481,
      "Ġproposal": 8482,
      "KO": 8483,
      "Ġunderstanding": 8484,
      "Ġaccompl": 8485,
      "ĠAthletic": 8486,
      "ĠSi": 8487,
      "astery": 8488,
      "Ġpanel": 8489,
      "Ġfilled": 8490,
      "ictional": 8491,
      "Ġearthqu": 8492,
      "Ġaggreg": 8493,
      "Ġaffairs": 8494,
      "Ġbanks": 8495,
      "ĠGulf": 8496,
      "ĠStorm": 8497,
      "Group": 8498,
      "ĠBilly": 8499,
      "Ġnovels": 8500,
      "ĠConservative": 8501,
      "Ġvessels": 8502,
      "ĠNative": 8503,
      "Sub": 8504,
      "elect": 8505,
      "Ġfalls": 8506,
      "ĠDaily": 8507,
      "November": 8508,
      "leans": 8509,
      "ĠPant": 8510,
      "ferences": 8511,
      "HS": 8512,
      "Ġtypical": 8513,
      "Ġdepos": 8514,
      "Ãª": 8515,
      "ĠĊĠĊ": 8516,
      "ĠGraham": 8517,
      "Ġprisoners": 8518,
      "bridge": 8519,
      "Ġclassified": 8520,
      "nal": 8521,
      "err": 8522,
      "Ġster": 8523,
      "Ġfixed": 8524,
      "ersh": 8525,
      "ĠBuddh": 8526,
      "cor": 8527,
      "atically": 8528,
      "Ġdress": 8529,
      "Ġdefeating": 8530,
      "ĠThus": 8531,
      "ework": 8532,
      "Ġprime": 8533,
      "Ġfeed": 8534,
      "ector": 8535,
      "acter": 8536,
      "gow": 8537,
      "ĠHom": 8538,
      "Ġpatrol": 8539,
      "87": 8540,
      "ĠBenn": 8541,
      "Ġdevices": 8542,
      "--": 8543,
      "Ste": 8544,
      "Ġsleep": 8545,
      "hyth": 8546,
      "apping": 8547,
      "Ġsuicide": 8548,
      "Ġthin": 8549,
      "ugu": 8550,
      "away": 8551,
      "Ġdated": 8552,
      "Results": 8553,
      "Ġinhabitants": 8554,
      "%.": 8555,
      "race": 8556,
      "ĠGlas": 8557,
      "Aust": 8558,
      "ĠLov": 8559,
      "Ġoverl": 8560,
      "Ġprocesses": 8561,
      "Ġuser": 8562,
      "ĠHeritage": 8563,
      "Ġentertainment": 8564,
      "Ġroughly": 8565,
      "ĠBush": 8566,
      "igible": 8567,
      "ĠDJ": 8568,
      "NC": 8569,
      "enson": 8570,
      "Ġwooden": 8571,
      "Pre": 8572,
      "ĠNatural": 8573,
      "Ġ47": 8574,
      "Ġinfrastructure": 8575,
      "Ġsort": 8576,
      "Ġdating": 8577,
      "ĠCarlos": 8578,
      "ouch": 8579,
      "ĠRap": 8580,
      "hab": 8581,
      "Ġri": 8582,
      "ĠBomb": 8583,
      "1984": 8584,
      "Ġign": 8585,
      "othe": 8586,
      "agg": 8587,
      "later": 8588,
      "oustic": 8589,
      "Ġjourney": 8590,
      "Ġintent": 8591,
      "ĠReport": 8592,
      "using": 8593,
      "aste": 8594,
      "wall": 8595,
      "rity": 8596,
      "resents": 8597,
      "Ġencounter": 8598,
      "ĠAdditionally": 8599,
      "Ġfest": 8600,
      "Ġbrick": 8601,
      "lected": 8602,
      "gans": 8603,
      "April": 8604,
      "rons": 8605,
      "Ġsuburb": 8606,
      "cussion": 8607,
      "inces": 8608,
      "Ġbran": 8609,
      "ĠLud": 8610,
      "Ġnote": 8611,
      "84": 8612,
      "Two": 8613,
      "onus": 8614,
      "Ġeighth": 8615,
      "ĠNever": 8616,
      "Ġscholars": 8617,
      "pes": 8618,
      "ĠMond": 8619,
      "Ġfilmed": 8620,
      "olds": 8621,
      "Ġmeets": 8622,
      "Ġcompletion": 8623,
      "Ġroster": 8624,
      "Ġdeclined": 8625,
      "ĠSeg": 8626,
      "ĠWing": 8627,
      "Ġedited": 8628,
      "Family": 8629,
      "Ġmanner": 8630,
      "Ġsynd": 8631,
      "eget": 8632,
      "Ġelectronic": 8633,
      "Ġmovements": 8634,
      "Ġmental": 8635,
      "1983": 8636,
      "ĠKit": 8637,
      "ĠChristopher": 8638,
      "Ġlegend": 8639,
      "ĠArn": 8640,
      "Ġimag": 8641,
      "ĠVic": 8642,
      "ĠTreat": 8643,
      "Ġreaction": 8644,
      "Ġcontra": 8645,
      "Ġdonated": 8646,
      "ĠStanley": 8647,
      "Ġwick": 8648,
      "ilia": 8649,
      "Ġsty": 8650,
      "abilities": 8651,
      "Ġextremely": 8652,
      "ML": 8653,
      "ouver": 8654,
      "ĠStra": 8655,
      "osph": 8656,
      "Ġstudying": 8657,
      "Ġaccounts": 8658,
      "Ġ1893": 8659,
      "ĠBaker": 8660,
      "Ġweekly": 8661,
      "Robert": 8662,
      "83": 8663,
      "lem": 8664,
      "othy": 8665,
      "Ġcasual": 8666,
      "ĠAld": 8667,
      "forcement": 8668,
      "ĠCer": 8669,
      "hammad": 8670,
      "len": 8671,
      "Ġinfluential": 8672,
      "din": 8673,
      "pat": 8674,
      "ĠYug": 8675,
      "ĠTrack": 8676,
      "Ġthemes": 8677,
      "Ġgenre": 8678,
      "ĠNicholas": 8679,
      "chang": 8680,
      "Ġequipped": 8681,
      "Ġcamera": 8682,
      "Sch": 8683,
      "high": 8684,
      "sson": 8685,
      "riday": 8686,
      "Ġcovering": 8687,
      "math": 8688,
      "Ãł": 8689,
      "ĠâĢł": 8690,
      "ĠOrleans": 8691,
      "Ġpersons": 8692,
      "Ġmessage": 8693,
      "September": 8694,
      "ĠBron": 8695,
      "agement": 8696,
      "ancell": 8697,
      "Ġ1895": 8698,
      "MP": 8699,
      "ĠMaine": 8700,
      "ulus": 8701,
      "Ġpopularity": 8702,
      "ĠGary": 8703,
      "Ġrose": 8704,
      "Ġrounds": 8705,
      "hus": 8706,
      "ĠVideo": 8707,
      "Ġrecordings": 8708,
      "castle": 8709,
      "ĠStudio": 8710,
      "Ġachieve": 8711,
      "Ġcontroversy": 8712,
      "died": 8713,
      "ĠHell": 8714,
      "ĠNi": 8715,
      "Ġplane": 8716,
      "Ġoperates": 8717,
      "Ġappearing": 8718,
      "ĠCher": 8719,
      "ocracy": 8720,
      "Ġcoverage": 8721,
      "Ġassociate": 8722,
      "ĠKra": 8723,
      "Ġcourts": 8724,
      "mosp": 8725,
      "repre": 8726,
      "Ġdanc": 8727,
      "Ġrates": 8728,
      "Ġexplained": 8729,
      "ĠLegislative": 8730,
      "otal": 8731,
      "Ġequivalent": 8732,
      "ĠâĤ": 8733,
      "Ġdim": 8734,
      "ĠBapt": 8735,
      "ĠFather": 8736,
      "mund": 8737,
      "elaide": 8738,
      "Ġlieutenant": 8739,
      "PR": 8740,
      "mates": 8741,
      "Ġcited": 8742,
      "ribute": 8743,
      "ĠSeven": 8744,
      "Ġchapel": 8745,
      "ĠTun": 8746,
      "ĠWa": 8747,
      "Ġhonors": 8748,
      "Ġoffering": 8749,
      "Ġcold": 8750,
      "Ġrend": 8751,
      "Ġsurgery": 8752,
      "tery": 8753,
      "Ġvary": 8754,
      "Ġplate": 8755,
      "Ġsoutheast": 8756,
      "Ġegg": 8757,
      "Ġdrew": 8758,
      "Ġmine": 8759,
      "ĠJe": 8760,
      "Ġcolour": 8761,
      "original": 8762,
      "ĠPatri": 8763,
      "reprene": 8764,
      "ĠCultural": 8765,
      "ĠMetro": 8766,
      "Ġmonument": 8767,
      "Ġ1891": 8768,
      "Works": 8769,
      "ĠRud": 8770,
      "ĠLet": 8771,
      "mat": 8772,
      "Ġdub": 8773,
      "Ġvessel": 8774,
      "gressive": 8775,
      "Ġbringing": 8776,
      "bat": 8777,
      "ĠWalt": 8778,
      "ĠFleet": 8779,
      "ĠMak": 8780,
      "ĠLocal": 8781,
      "essions": 8782,
      "phone": 8783,
      "ĠDog": 8784,
      "Ġgather": 8785,
      "Ġuniform": 8786,
      "Ġapproval": 8787,
      "Ġhappened": 8788,
      "estyle": 8789,
      "Ġeliminated": 8790,
      "unities": 8791,
      "shaped": 8792,
      "Ġstret": 8793,
      "Ġrepresents": 8794,
      "82": 8795,
      "Å¾": 8796,
      "acks": 8797,
      "Ġ1897": 8798,
      "ĠSongs": 8799,
      "Euro": 8800,
      "Ġparticipation": 8801,
      "isd": 8802,
      "isch": 8803,
      "ĠEnt": 8804,
      "ĠMountains": 8805,
      "ĠBenjamin": 8806,
      "Out": 8807,
      "ĠTang": 8808,
      "Ġteachers": 8809,
      "ĠMadrid": 8810,
      "Ġdegrees": 8811,
      "aments": 8812,
      "iration": 8813,
      "aware": 8814,
      "ĠBachelor": 8815,
      "terior": 8816,
      "ĠStat": 8817,
      "Ġ1888": 8818,
      "ĠRacing": 8819,
      "Har": 8820,
      "Ġmemorial": 8821,
      "amo": 8822,
      "Ġeleven": 8823,
      "Ã¼n": 8824,
      "ĠBeck": 8825,
      "acre": 8826,
      "ĠVas": 8827,
      "Ġneut": 8828,
      "Ã¶r": 8829,
      "door": 8830,
      "Ġassass": 8831,
      "Ġcomponents": 8832,
      "ãĤ": 8833,
      "Ġconqu": 8834,
      "Ġoutput": 8835,
      "Ġsecure": 8836,
      "ielder": 8837,
      "ĠConn": 8838,
      "Ġinstruments": 8839,
      "ooks": 8840,
      "ĠBeg": 8841,
      "Ġexpedition": 8842,
      "ects": 8843,
      "Ġplatforms": 8844,
      "Ġmob": 8845,
      "ido": 8846,
      "Ġdescend": 8847,
      "Ġ1892": 8848,
      "Ġexcell": 8849,
      "Ġcarbon": 8850,
      "DS": 8851,
      "ĠKath": 8852,
      "ĠPhoenix": 8853,
      "Ġwarm": 8854,
      "riel": 8855,
      "load": 8856,
      "Ġauthors": 8857,
      "fers": 8858,
      "ĠParker": 8859,
      "Ġfear": 8860,
      "rove": 8861,
      "ĠNeb": 8862,
      "BO": 8863,
      "Ġsegment": 8864,
      "ĠVenez": 8865,
      "ĠWelsh": 8866,
      "iya": 8867,
      "arta": 8868,
      "inate": 8869,
      "Ġrepresentation": 8870,
      "ellect": 8871,
      "ecution": 8872,
      "1979": 8873,
      "Ġlists": 8874,
      "ĠFood": 8875,
      "ĠAnti": 8876,
      "ĠSS": 8877,
      "Ġsomeone": 8878,
      "ĠFloren": 8879,
      "ĠCharlotte": 8880,
      "Ġfix": 8881,
      "ĠNA": 8882,
      "Personnel": 8883,
      "Bar": 8884,
      "Ġheritage": 8885,
      "ĠPierre": 8886,
      "Ġprompt": 8887,
      "Ġdisband": 8888,
      "Ġ56": 8889,
      "ĠConvention": 8890,
      "Ġ1860": 8891,
      "Ġentering": 8892,
      "Ġdrawing": 8893,
      "FM": 8894,
      "Tele": 8895,
      "atab": 8896,
      "Ġseed": 8897,
      "Ġprovincial": 8898,
      "Ġcapable": 8899,
      "ĠFranklin": 8900,
      "hand": 8901,
      "ĠKap": 8902,
      "Ġlasted": 8903,
      "ĠHas": 8904,
      "1982": 8905,
      "Ġ1889": 8906,
      "enberg": 8907,
      "Ġbat": 8908,
      "Ġ120": 8909,
      "ĠCarm": 8910,
      "ĠGoth": 8911,
      "ĠStev": 8912,
      "Ġforming": 8913,
      "ĠMovement": 8914,
      "Ġhorses": 8915,
      "ĠNep": 8916,
      "ribed": 8917,
      "Ġsnow": 8918,
      "Ġwave": 8919,
      "Ġorchestra": 8920,
      "Ġ1899": 8921,
      "hu": 8922,
      "Ġextens": 8923,
      "Ġstress": 8924,
      "ĠChand": 8925,
      "Ġpoem": 8926,
      "ĠMalaysia": 8927,
      "ĠHold": 8928,
      "Ġremainder": 8929,
      "ĠTob": 8930,
      "cknow": 8931,
      "Ġassets": 8932,
      "Ġpapers": 8933,
      "ĠBasketball": 8934,
      "Ġles": 8935,
      "TS": 8936,
      "ĠChart": 8937,
      "July": 8938,
      "Ġsupposed": 8939,
      "erate": 8940,
      "Ġham": 8941,
      "acon": 8942,
      "iko": 8943,
      "ĠAppe": 8944,
      "arus": 8945,
      "maker": 8946,
      "Ġjump": 8947,
      "ĠProm": 8948,
      "ĠGriff": 8949,
      "Ġattorney": 8950,
      "ĠSaturday": 8951,
      "81": 8952,
      "Ġvisiting": 8953,
      "tes": 8954,
      "Ġcup": 8955,
      "Ġinstitution": 8956,
      "ĠPsych": 8957,
      "Ġnet": 8958,
      "Ġ1894": 8959,
      "Ġexhibitions": 8960,
      "Ġparallel": 8961,
      "ĠFr": 8962,
      "ĠNet": 8963,
      "Ġsentenced": 8964,
      "Ġuniversities": 8965,
      "eenth": 8966,
      "ĠRic": 8967,
      "ĠFitz": 8968,
      "ĠEconomic": 8969,
      "ĠTurner": 8970,
      "Ġfinding": 8971,
      "Ġportrayed": 8972,
      "Ġappointment": 8973,
      "bane": 8974,
      "andal": 8975,
      "oca": 8976,
      "Ġcousin": 8977,
      "ĠHockey": 8978,
      "Professional": 8979,
      "Donald": 8980,
      "Ġmerchant": 8981,
      "Ġsubsidi": 8982,
      "via": 8983,
      "aja": 8984,
      "Ġbenefit": 8985,
      "Ġannounce": 8986,
      "ĠSoul": 8987,
      "Ġabroad": 8988,
      "Ġregul": 8989,
      "ĠFrances": 8990,
      "Ġprofession": 8991,
      "IP": 8992,
      "ĠVo": 8993,
      "asts": 8994,
      "ĠAlice": 8995,
      "1981": 8996,
      "Ġhosts": 8997,
      "Ġturb": 8998,
      "ĠFace": 8999,
      "ophone": 9000,
      "Ġbes": 9001,
      "ingly": 9002,
      "cho": 9003,
      "imir": 9004,
      "ĠRugby": 9005,
      "Ġstrategy": 9006,
      "Ġpenalty": 9007,
      "Ġprotests": 9008,
      "ĠFisher": 9009,
      "Ġrout": 9010,
      "ĠAdvis": 9011,
      "ĠCanal": 9012,
      "avan": 9013,
      "Ġgrass": 9014,
      "ÅŁ": 9015,
      "Ġindicated": 9016,
      "Ġtrading": 9017,
      "Ġreportedly": 9018,
      "cover": 9019,
      "Ġfishing": 9020,
      "hers": 9021,
      "Ġcompeting": 9022,
      "issue": 9023,
      "Ġheads": 9024,
      "Ġvoting": 9025,
      "otype": 9026,
      "iop": 9027,
      "Ġacted": 9028,
      "Ġrelative": 9029,
      "Ġsustain": 9030,
      "but": 9031,
      "ĠSche": 9032,
      "ĠAbout": 9033,
      "Ġcommanded": 9034,
      "ju": 9035,
      "Ġfra": 9036,
      "ĠPir": 9037,
      "ĠAdelaide": 9038,
      "rez": 9039,
      "oka": 9040,
      "team": 9041,
      "ĠManh": 9042,
      "Ġmissed": 9043,
      "Ġago": 9044,
      "Ġcrash": 9045,
      "Ġsafe": 9046,
      "cut": 9047,
      "ĠHum": 9048,
      "Ġwhilst": 9049,
      "Ġnominations": 9050,
      "Ġnations": 9051,
      "ĠMuhammad": 9052,
      "ĠNazi": 9053,
      "ters": 9054,
      "asi": 9055,
      "ilarly": 9056,
      "ilty": 9057,
      "udden": 9058,
      "Ġassists": 9059,
      "Ġpeaked": 9060,
      "rock": 9061,
      "ĠDom": 9062,
      "ĠObl": 9063,
      "ĠSecret": 9064,
      "ĠPrior": 9065,
      "ĠSlov": 9066,
      "Oper": 9067,
      "Ġstring": 9068,
      "Ġaimed": 9069,
      "ĠBey": 9070,
      "Ġcoaching": 9071,
      "Sim": 9072,
      "Ġsun": 9073,
      "ĠSid": 9074,
      "Ġpron": 9075,
      "ĠSyria": 9076,
      "cf": 9077,
      "Ġrepro": 9078,
      "mo": 9079,
      "ĠCBS": 9080,
      "Ġranking": 9081,
      "inct": 9082,
      "ĠJenn": 9083,
      "Ġheat": 9084,
      "ĠBarry": 9085,
      "ĠElectric": 9086,
      "Ġsax": 9087,
      "aku": 9088,
      "Ġcircuit": 9089,
      "nia": 9090,
      "Ġtheat": 9091,
      "Ġmir": 9092,
      "ĠJa": 9093,
      "Ġdrag": 9094,
      "ĠRichmond": 9095,
      "Ġparticipants": 9096,
      "encing": 9097,
      "ĠCollection": 9098,
      "iciency": 9099,
      "eston": 9100,
      "ĠOri": 9101,
      "Ġplus": 9102,
      "Ġmarkets": 9103,
      "Play": 9104,
      "Ġcelebrated": 9105,
      "ĠSha": 9106,
      "ĠExchange": 9107,
      "bound": 9108,
      "Ġfer": 9109,
      "Ġmit": 9110,
      "George": 9111,
      "ĠMother": 9112,
      "olia": 9113,
      "uzz": 9114,
      "ĠVegas": 9115,
      "ĠBangladesh": 9116,
      "reck": 9117,
      "Ġnone": 9118,
      "Ġyoungest": 9119,
      "Ġrowspan": 9120,
      "iors": 9121,
      "ãģ": 9122,
      "Ġacknow": 9123,
      "Ġwants": 9124,
      "Ġalcoh": 9125,
      "You": 9126,
      "ĠHorn": 9127,
      "Ġperhaps": 9128,
      "ĠContemporary": 9129,
      "Ġvic": 9130,
      "lu": 9131,
      "ĠBlues": 9132,
      "Ġboats": 9133,
      "AN": 9134,
      "ounced": 9135,
      "Ġskin": 9136,
      "Honours": 9137,
      "ĠKun": 9138,
      "Ġstrongly": 9139,
      "ĠClassic": 9140,
      "Critical": 9141,
      "annels": 9142,
      "Ġ85": 9143,
      "Ġsouthwest": 9144,
      "ĠUFC": 9145,
      "ruction": 9146,
      "1960": 9147,
      "Ġaudio": 9148,
      "Ġfal": 9149,
      "Ġcommented": 9150,
      "Ġmolec": 9151,
      "Ġreun": 9152,
      "Ġeyes": 9153,
      "Ġclassic": 9154,
      "ĠPay": 9155,
      "ĠVel": 9156,
      "Ġarc": 9157,
      "Ġinstance": 9158,
      "ĠMess": 9159,
      "opal": 9160,
      "Ġdispl": 9161,
      "Ġdefence": 9162,
      "Ġrequires": 9163,
      "Ġpregn": 9164,
      "Ġreputation": 9165,
      "Ġarchitectural": 9166,
      "ĠLloyd": 9167,
      "Ġliqu": 9168,
      "Ġtraded": 9169,
      "ĠFem": 9170,
      "Ġsomewhat": 9171,
      "Port": 9172,
      "eed": 9173,
      "iri": 9174,
      "sea": 9175,
      "Ġfriendly": 9176,
      "Ġdismissed": 9177,
      "ĠBarbara": 9178,
      "ĠMagn": 9179,
      "host": 9180,
      "ĠMall": 9181,
      "ĠSig": 9182,
      "Ġdream": 9183,
      "Ġhang": 9184,
      "oom": 9185,
      "rov": 9186,
      "aze": 9187,
      "ĠScient": 9188,
      "language": 9189,
      "ĠPont": 9190,
      "obby": 9191,
      "ĠCollins": 9192,
      "ser": 9193,
      "uli": 9194,
      "ocol": 9195,
      "ancouver": 9196,
      "Ġtex": 9197,
      "ĠTrophy": 9198,
      "Ġillegal": 9199,
      "Ġveget": 9200,
      "teenth": 9201,
      "issions": 9202,
      "Ġsupports": 9203,
      "Ġanything": 9204,
      "restling": 9205,
      "ĠRangers": 9206,
      "ulum": 9207,
      "ĠGuy": 9208,
      "Ġexhibited": 9209,
      "ĠHampshire": 9210,
      "auc": 9211,
      "Ġneuro": 9212,
      "ĠKnow": 9213,
      "Ġsatisf": 9214,
      "Ġfurn": 9215,
      "Ġcontinuing": 9216,
      "ĠYouT": 9217,
      "ĠOrthodox": 9218,
      "Ġspiritual": 9219,
      "ĠHig": 9220,
      "acts": 9221,
      "ĠBud": 9222,
      "Ġmode": 9223,
      "Ġoperational": 9224,
      "ĠYank": 9225,
      "Ġdeparture": 9226,
      "ĠYugoslav": 9227,
      "Ġtransc": 9228,
      "Ġcomed": 9229,
      "Ġattributed": 9230,
      "bes": 9231,
      "ĠCase": 9232,
      "ĠLag": 9233,
      "ĠSyrian": 9234,
      "Ġmeetings": 9235,
      "Ġsquadron": 9236,
      "ĠDra": 9237,
      "Ġamateur": 9238,
      "uka": 9239,
      "Ġrecommended": 9240,
      "Ġrib": 9241,
      "roph": 9242,
      "Ġbrigade": 9243,
      "Ġevolution": 9244,
      "ĠPoly": 9245,
      "Ġincreasingly": 9246,
      "!\"": 9247,
      "Ġtact": 9248,
      "iph": 9249,
      "ĠPhot": 9250,
      "Ass": 9251,
      "alph": 9252,
      "Ġdraf": 9253,
      "ĠLP": 9254,
      "ĠMilan": 9255,
      "ilo": 9256,
      "uru": 9257,
      "Ġagencies": 9258,
      "Ġtests": 9259,
      "Ġlandscape": 9260,
      "Ġrebounds": 9261,
      "Ġmassive": 9262,
      "Ġexecuted": 9263,
      "'ve": 9264,
      "orship": 9265,
      "ĠHous": 9266,
      "Ġconcrete": 9267,
      "1977": 9268,
      "Ġprocessing": 9269,
      "Ġindicate": 9270,
      "Ġdepict": 9271,
      "Ġtell": 9272,
      "nee": 9273,
      "Ġcorrect": 9274,
      "irk": 9275,
      "Ġru": 9276,
      "acht": 9277,
      "ristol": 9278,
      "ĠRomanian": 9279,
      "ĠĠĠĠĠĠĠĠĠĠĠĠĠĠĠĠ": 9280,
      "Ġpod": 9281,
      "ranean": 9282,
      "Ġpreserved": 9283,
      "uable": 9284,
      "ĠSz": 9285,
      "Ġ66": 9286,
      "dest": 9287,
      "anne": 9288,
      "ĠMes": 9289,
      "abric": 9290,
      "ĠAlt": 9291,
      "ĠWayne": 9292,
      "ĠAction": 9293,
      "Ġcollect": 9294,
      "Ġvisitors": 9295,
      "Ġcoastal": 9296,
      "ultane": 9297,
      "Ġunderground": 9298,
      "ducer": 9299,
      "Station": 9300,
      "Ġruling": 9301,
      "Dr": 9302,
      "Ġ1861": 9303,
      "Rich": 9304,
      "ĠBureau": 9305,
      "ĠApple": 9306,
      "Ġurg": 9307,
      "Ġexpect": 9308,
      "Ġposted": 9309,
      "Ã¦": 9310,
      "Ġmonitor": 9311,
      "ĠSection": 9312,
      "ĠAmaz": 9313,
      "ĠTrinity": 9314,
      "ĠYears": 9315,
      "Ġcreative": 9316,
      "Ġnewspapers": 9317,
      "lee": 9318,
      "ĠIan": 9319,
      "Ġmodified": 9320,
      "Ġphotographer": 9321,
      "rehens": 9322,
      "Ġhuge": 9323,
      "Ġknew": 9324,
      "Ġtraveled": 9325,
      "keeper": 9326,
      "?\"": 9327,
      "Ġhighlight": 9328,
      "ĠFlight": 9329,
      "ĠIranian": 9330,
      "ĠGuine": 9331,
      "Ġbattery": 9332,
      "ĠNigeria": 9333,
      "ĠSymphony": 9334,
      "Sw": 9335,
      "inations": 9336,
      "Ġanch": 9337,
      "estone": 9338,
      "ĠExper": 9339,
      "ĠBranch": 9340,
      "ported": 9341,
      "Ġ53": 9342,
      "Ġspending": 9343,
      "1975": 9344,
      "oro": 9345,
      "owo": 9346,
      "Ġturning": 9347,
      "ĠBelgian": 9348,
      "Ġnovelist": 9349,
      "uble": 9350,
      "Ġrelocated": 9351,
      "Ġmaintenance": 9352,
      "Ġsculpture": 9353,
      "ĠJonathan": 9354,
      "Ġsoccer": 9355,
      "ĠPav": 9356,
      "Ġhearing": 9357,
      "ÄĻ": 9358,
      "ĠLeban": 9359,
      "Ġdebate": 9360,
      "ĠUpper": 9361,
      "onian": 9362,
      "Ġinner": 9363,
      "ĠKirk": 9364,
      "Ġsecured": 9365,
      "ĠGray": 9366,
      "ĠYe": 9367,
      "owell": 9368,
      "ĠLie": 9369,
      "erted": 9370,
      "itially": 9371,
      "Ġrecre": 9372,
      "ĠDragon": 9373,
      "gie": 9374,
      "ĠGate": 9375,
      "ĠChang": 9376,
      "ĠVlad": 9377,
      "Ġartwork": 9378,
      "mont": 9379,
      "Ġpercussion": 9380,
      "Ġelegans": 9381,
      "Ġbirds": 9382,
      "amps": 9383,
      "Ġseek": 9384,
      "Ġfemales": 9385,
      "Selected": 9386,
[...]
